FFF5
004A
0059
005F
001E
FFCA
0030
0060
007B
007D
0012
0025
FFC5
FFDD
0038
FFF0
001E
FF80
FF83
FFA4
0000
FFFC
FFC4
FF7F
FFB4
0025
001E
FFFA
0044
0052
FFC9
0035
006E
FFF3
FFC0
FFFF
004D
0071
FFE5
FFB8
FFF1
005A
0031
FFAA
FFAB
FFDA
0043
0037
FFD6
FFEA
0024
FFE4
FF7A
FF58
FFB6
005A
0007
FFB9
FF7E
FF9F
004D
009D
0094
0051
0016
FFF5
0068
0055
001A
FFF1
FFC7
FFF2
0014
0051
0025
FFB7
0021
FFF7
0029
000E
0017
0022
FFF0
0044
FFD4
001F
FFE4
0012
FFD3
0028
FFFD
004D
0017
0012
0028
FFFB
001E
FFEE
0009
000E
FFEF
0026
0010
0006
0000
FFED
004C
000A
FFD7
FFC1
0048
0037
0020
FFE3
FF91
0024
0058
FFE3
FFB1
FFB9
004C
005D
FFCD
FFA2
FFCB
FFDD
FFBC
FF8C
FFBC
FFD3
FF76
FF86
FF75
FFF8
0038
FFA1
FFA5
FFFF
0056
0049
0013
0015
003C
0077
0027
0045
002B
0068
004B
FFC8
003A
0019
0042
0018
FFD8
005A
FFCB
0011
FFE8
FFE9
FFE5
FFCC
FFAE
000C
0038
FFE6
0063
0050
005E
0031
001A
003E
FFD0
FFEE
FFBF
0013
FFFF
FFB0
0009
0005
FFDD
FFFA
001D
0044
000A
0023
0046
0078
0063
001A
0033
FFFE
FFB4
0003
0049
FFE2
FFA1
FF76
FFAD
0000
