0007
001B
FFB6
FFA1
FFF7
000D
FFE8
FFA4
FFC8
0007
FFDB
FFD3
FF8A
FFBF
FFD8
0028
FFBD
FFCE
FFE2
001B
0012
FFFE
0021
000E
0039
0015
003D
FFD7
003D
FFF8
FFED
FFEA
FFF0
0051
000A
FFCD
FFE5
FFBB
0036
001E
FFFF
FFB4
FFFD
FFFE
0012
FFF7
FFE2
001A
0000
0030
0013
FFDC
FF99
FFE8
FFF6
FFD8
FFEF
FF66
FFFD
FFFC
0001
FFFE
FF97
FFE5
0022
005D
0035
FFF5
FFE2
0026
FFF2
0001
FFF2
002D
002D
FFD9
FFFE
FFFC
FFDF
FFDE
FFED
FFB6
FFF6
0017
000D
0025
FFE5
0008
000C
001D
000C
000A
0034
0038
001F
FFEF
FFF8
001E
0018
0001
FFF7
003B
0025
0043
000E
000B
0019
0009
0040
0009
FFFC
0013
0012
0026
FFFB
FFCE
0004
002D
001E
FFDE
FFBC
FFE8
0026
FFED
0010
FFE8
FFEA
0016
FFD4
FFE6
FFFB
FFBC
0000
FFFA
FFF8
001B
000A
0017
FFF3
FFE6
0004
0012
0029
FFC4
FFFE
FFC1
FFF2
FFE2
FFD9
FFE0
FFE0
FFD0
0010
0023
FFE3
FFF6
FFD5
FFD5
0004
0005
0008
FFF5
FFF7
FFFD
0030
FFFF
FFFA
001C
000E
0052
FFFC
001C
002C
FFFD
000F
FFE5
0027
FFF0
FFA0
FFE3
FFEC
0003
FFF7
FFA6
FFE2
FFEC
FFEE
FFE4
0008
001E
0040
0036
0000
FFFE
0028
0001
0014
0021
003A
005C
FFF4
002B
001A
001C
FFF8
0036
003E
0022
0025
FFD3
003A
002F
FFDC
FFA5
FFE0
FFE4
FFA0
FF92
001E
0032
FF6D
FF85
FFCC
0011
0006
0031
0038
0041
0019
FFE3
001F
003D
002F
FFF8
FFE5
FFFA
000C
FFD2
FF81
FFE8
FFD9
FF6F
FFB1
FFFE
0000
FFE5
FFDB
FFCA
000C
FFF5
000D
0027
FFFC
0006
0010
FFC0
0009
FFD2
FFC4
FFB4
FFC4
FFB7
FF97
FFC4
FFCA
FFB8
FF92
FFBA
FFED
001F
FFCA
FFBB
FFEB
0005
003A
001F
0025
0017
0017
FFFE
FFF9
000C
FFE0
FFDB
FFE0
FFDD
FFB6
FFAC
FFCB
0000
FFB9
FF82
FFCD
FFE6
FFF3
FFCB
0006
FFEF
001B
0007
0018
0080
0046
004F
FFF6
002C
0032
0024
000F
FFE9
0010
FFEE
FFB8
FFCE
0032
FFF5
FF9E
FF7F
0000
0031
000B
0023
0006
0032
000B
FFF8
0029
0034
001B
0001
0014
0031
FFD6
FFD0
FFCA
0000
FFAE
FFF4
0026
0048
FFDB
0008
000D
002E
0028
0041
000D
000C
0005
FFF3
0003
0020
FFEE
0021
0013
000F
0021
FFE7
FFF2
FFF1
FFD4
FFCE
FFEA
0020
0026
FFCD
FFC3
FFC5
FFCF
FFEA
FFBF
FFEA
FFD8
FFED
FFE4
0018
FFFB
0027
0015
000B
FFFC
0027
000D
FFFA
FFD8
000C
FFF6
FF93
FFBF
FFDB
FFAF
FF84
FFE9
0013
0011
FF97
FFDF
FFE8
0017
FFD5
FFEA
0015
FFF6
0042
001A
0019
FFFB
FFF5
FFEA
FFC8
0004
FFEF
FFC5
FFCF
FFF3
FFF2
FFF1
FFDE
0002
0001
0011
0035
0031
0011
FFFA
FFEE
FFE1
0003
0006
0012
0003
FFD8
FFE7
FFFD
FFC1
FFD4
000E
FFDD
FFF9
0034
FFCB
FFDF
001D
0013
002C
FFE5
0030
0040
0006
FFF3
FFDC
0003
0010
0010
0002
0003
001A
000E
002A
0037
002D
0013
FFE2
000B
FFFD
002E
0032
FFEE
FFBD
FFCE
0046
FFFA
FFB7
FF9C
FFCE
FFDC
0002
FFFD
FFFC
FFF9
0012
0001
000C
FFEE
FFF9
FFD6
FFE9
0004
0015
FFFC
0023
0025
0028
0020
0002
001E
0014
FFF8
FFE3
FFDD
FFE9
FFF6
0000
0016
FFF2
000F
FFD5
0002
FFE4
000A
FFF4
FFAA
FFD7
0009
0018
FFAB
FFCC
0016
FFF8
FFF9
FF91
FFEB
0010
FFE5
FFD7
000F
FFEB
FFF7
FFD8
FFD7
FFFB
0006
FFE2
FFD0
FFE8
FFF5
FFD1
FFFD
0021
FFF1
001A
002A
003A
0013
FF8E
002A
FFFE
FFCE
FFC6
FFCA
FFA9
FFBA
FFFD
0015
FFE6
FFCF
0009
0005
FFF0
0021
0001
FFF6
0011
0018
001C
000F
004D
004B
FFEB
FFEC
0028
0014
FFF9
0007
0013
000C
001F
FFF2
000B
000B
0020
000A
0032
0000
FFA6
FFF6
0008
FFEA
FFCF
0005
FFE4
FFF2
0024
003D
001A
0009
0051
0041
0002
FFC8
0009
0006
0017
FFF6
FFEC
0012
FFE9
FFD0
FFCF
0027
FFD9
FFC5
0030
0036
0017
FFB1
0018
0010
0003
FFC2
0015
0004
FFE5
FFE9
0002
0006
0004
0030
FFF0
FFD8
FFD8
FFD5
FFAC
FFD2
0010
FFB2
FFD9
FFEE
FFE8
FFE6
0020
002A
FFF3
FFE1
FFEF
0033
0018
FFE1
FFF4
FFF4
000E
FFDB
FFC4
FFBD
FFF6
FFD5
FFD6
FFEA
0020
002A
FFB3
FFF3
0010
0016
0030
0011
FFD7
FFFC
000B
0011
0031
0056
0044
004E
0008
FFDE
FFF0
FFE1
FFF1
FFF2
FFA9
FFCE
FFDF
FFE6
FFFD
FFE7
FFCF
FFF8
FFE4
FFDF
FFFB
0028
0004
FFF8
FFE0
002E
001A
FFFD
0005
000F
001F
001B
0026
000E
FFF7
FFDF
FFEF
001F
FFBD
0022
FFC9
FFD2
FFF7
FFE5
FFF8
FFE4
0026
0006
FFD8
FFE2
FFDC
0007
FFF8
FFFB
FFE7
FFED
FFFA
FFC0
FFFC
0029
FFEF
FFED
001F
0040
001D
000E
0033
0008
FFEB
FFAA
0047
0021
FFDE
FFEC
FFF6
001B
FFF5
0003
000C
0006
FFEF
FFE2
FFCC
000F
004B
FFC0
FFD3
000E
0007
FFF2
FFD9
0005
FFF4
0004
FFFE
FFE7
FFE8
0009
002E
0008
0001
FFFD
0017
0000
FFD0
FFFA
FFEA
FFF5
FFBC
FFE4
FFF4
FFC0
FFD1
000C
0028
FF82
FFDF
0026
0029
FFEC
FFDA
FFF7
0014
FFCB
FFF5
0033
002B
001D
0009
0002
0013
0008
FFC7
0012
0016
0019
FFAB
FFCF
0025
0009
0016
FFBE
0011
0021
001A
FFFD
FFF0
0016
0024
FFF7
FFD5
001B
0008
FFEA
0019
FFFC
0005
FFE7
0029
000C
FFF5
FFB7
0030
0025
0027
FFEB
FFF8
0030
FFFF
000C
0012
0009
002B
0014
FFEF
0016
FFE9
0005
FFF8
0020
0004
FFEC
FFCF
FFFB
0010
0025
0015
FFBC
FFF9
FFFC
0012
FFEC
FFCB
FFE5
FFF9
FFD4
FF9D
FFBD
FFF7
0008
FF6F
FFAE
0013
0029
0002
000D
FFF9
0004
001D
0010
0001
0008
000E
001A
0010
FFF8
0007
0012
0012
FFE3
FFEE
000C
FFF2
000C
FFFD
FFE2
FFF5
0000
FFDC
FFD5
FFCE
FFC2
FFEA
0040
FFF9
FFBB
FFC2
0028
0029
0007
FFDF
FFE7
0034
0016
FFF2
0008
0022
0036
0025
0012
0037
000F
001C
FFF4
000D
0015
FFEB
0010
0013
FFE3
FFEA
000A
0006
FFED
FFCF
FFFD
FFE6
FFEC
FFC7
FFBE
FFE9
FFDE
FFC6
FFBF
FFD2
FFDD
FFD6
FFB3
0009
FFCF
0011
FFF9
0034
0005
0001
001D
0021
0014
FFFF
0011
FFF0
0036
002F
FFFC
FFE0
FFF0
FFFF
0002
FFFC
FFFD
FFC7
FFEB
000B
001A
FFF8
0022
0007
0000
FFEE
0019
0048
001E
FFE6
0011
0010
FFFF
0017
0000
000D
FFED
0001
0015
001D
FFFA
FFF4
FFD3
FFF3
000C
0005
FFFB
FFCB
FFEA
FFBE
FFF6
FFF5
0001
FFE6
FFF9
0009
0006
FFD9
FFD0
001A
001E
FFF3
FFC1
FFFC
0036
0000
FFE6
FFCC
0013
0015
FFFE
000B
FFB2
FFDC
FFE0
FFE7
FFE9
FFD0
FFDE
0005
FFF4
FFF7
FF9A
002A
004A
0013
FFF7
FFC7
0043
0061
000A
FFBE
002A
0039
0028
FFED
FFEA
FFF2
000C
0008
0006
0009
002A
0023
000B
FFF9
FFF8
FFDC
FFEC
FFE1
FFF1
0005
FFAC
FFB4
FFF2
FFE3
FFE8
FFB9
FFD7
000F
FFFD
FFE9
FFFF
0017
FFFD
FFF6
0002
0012
0011
0008
000B
FFF0
FFEA
FFFF
0020
0000
FFEA
0017
0014
0019
FFE9
FFC8
002A
003A
000E
FFD0
FFCE
FF87
FFE3
FFEA
FFEB
FFF2
FF69
FFE5
0031
0016
FFEC
FF82
0024
0046
0019
FFE2
FFFE
0044
0045
FFFE
FFD7
0044
0065
0042
FFCD
FFE0
0003
FFEB
FFE9
FFFE
0011
000D
FFE2
FFEE
FFF9
000E
FFD6
0010
FFEC
FFE3
FFDA
0030
001C
FFDF
FFA2
0002
003C
0021
FFE3
0008
0004
FFF3
0015
0004
FFDF
0001
FFF9
0034
000B
001F
FFFC
000A
0052
0036
FFBE
FFE0
0033
003F
0005
FFF8
0006
0009
0036
0007
FFE9
FFEC
0013
0015
FFF6
FFD9
FFE5
0056
0003
FFD1
FFEC
001A
003F
FFD0
000A
0011
FFFA
FFFC
000F
001F
FFEE
000B
0023
0013
0011
0019
0001
FFB6
0013
0030
0008
0014
0008
FFF4
FFD9
FFD6
0007
0017
001C
FFB2
FFBC
FFE9
FFB7
0018
0022
FFDD
FFE3
0034
FFEF
0009
0021
0028
FFFD
FFF9
FFD8
FFEE
FFFE
FFFA
FFE6
FFE4
FFCF
FFD2
0022
FFDE
0004
FFFE
FFE9
000A
000C
000D
0000
FFFD
0003
001D
001B
FFFB
0003
FFEC
0009
FFD2
FFB9
FFB0
000E
0031
0046
FFF0
FFB2
FFE2
FFFB
0047
002C
FFE1
0002
0010
FFF1
0024
0001
001A
0030
FFE5
0012
0013
FFFA
FFD5
FFCA
FFB8
FFF0
FFEF
FFE2
FFE4
FFDC
FFE2
FFFC
0012
FFD8
FFEB
FFF9
002F
002C
0006
FFFE
0021
0010
001F
0011
0019
0015
000C
FFFB
FFE4
FFF5
FFF6
FFF6
FFD2
0002
0030
FFE1
FFF2
FFE6
FFEB
002B
000F
FFDC
0007
0011
0035
001C
FFCC
000F
0012
FFFE
0006
0022
0021
FFFF
0015
000B
0025
0011
0015
FFE0
FFFC
0014
FFFF
FFD0
FFCF
FFF3
FFF1
FFFD
0002
FFE8
FFEA
0001
FFFE
003C
0020
0025
FFEE
FFDC
FFBB
FFA3
FFD3
000A
FFE0
FFD0
FFAF
FFAE
FFFC
FFFA
FFFC
FFD5
FFAC
0031
000A
000B
FFF8
001A
000A
001A
002D
0014
000C
FFBD
FFD3
FFF3
FFF6
FFEB
0001
0025
FFD6
FFDA
FFDD
FFE7
0012
FFE8
FFCA
FFC1
FFF3
FFED
FFF7
FFEE
FFE4
0022
0042
001B
000E
0002
0000
FFD6
FFB8
FFE7
FFEE
004F
0055
0016
FFFC
FFD8
0013
0031
001D
001F
0019
FFD9
FFBA
FFDC
FFE0
0012
0003
000A
000E
FFF5
FFEF
FFE7
FFDE
FFED
FFF9
FFEB
0011
FFFE
FFE5
FFF2
FFDB
0017
001C
FFD8
0002
FFF0
FFEB
FFE8
FFEF
FFF3
FFED
000B
0035
0002
0013
FFE1
0020
003E
0040
0024
FFDE
FFFF
0011
0026
0037
004B
FFE4
FFAE
FF8B
FFC1
0004
000F
0026
FFEE
FFC7
FFBD
0004
0012
0002
0006
FFF1
003E
0032
0020
000F
0010
0003
0001
000B
001E
000F
FFE0
FFDC
FFCA
FFF5
0007
FFF5
FFC7
FFE9
FFE2
0008
FFFB
FFF7
FFF8
FFFE
000B
FFF4
FF9C
FFC3
FFFD
0004
FFC5
FFA2
FF92
FFE3
0011
FFFE
FFFA
FFD5
0012
0010
0008
002C
0018
000F
0005
0023
0048
0034
0013
0006
001B
0009
000A
0021
FFFD
FFE6
FFFB
FFD3
0010
0004
FFFB
FFD0
FFBB
FFCE
FFDD
001C
0030
001B
0031
0002
0008
FFF8
001D
001F
FFF6
0002
0028
003C
0036
FFEC
0016
FFF1
0001
000B
FFEE
FFCB
FFFB
000F
0009
0011
FFF5
FFD8
FFB8
FFDE
FFF3
FFEA
FFDF
FFE7
FFF0
FFE2
0033
001B
0023
0035
0009
0000
003C
002A
001B
FFE6
FFE0
FFF1
000E
000B
000B
FFD9
FFC8
FFFC
FFCB
FFF8
000E
0003
0002
FFE9
0043
0004
FFFF
0016
0005
FFC9
FFFD
0000
FFC1
FFEB
FFC2
0024
0018
FFD9
0013
0008
FFED
FFC2
FFD2
FFE0
FFEA
FFE6
0011
000E
FFE8
FFA2
FFEB
0029
FFF2
FFDD
FFDB
FFC2
FFA8
FFFB
0017
FFD0
000A
FFC9
FFFA
0059
002B
0017
FFC8
FFC4
0035
0024
FFFA
FFE0
FFE6
0019
0027
FFF3
0000
FFFF
FFBA
FFAC
FFF3
0037
0058
0036
FFFE
FFE9
FFF3
003A
0049
0001
FFFB
FFCD
FFB7
002A
003B
FFD8
FFCC
FF74
0028
004E
0019
0012
000E
FFCA
FFDC
FFFC
000D
FFFC
FFFD
FFC6
001C
000A
FFE7
001E
FFEF
FFFF
FFF5
0024
000E
FFF6
FFD1
FFC9
000F
001B
001D
0002
002C
0006
0003
FFC8
FFA7
FFDE
0016
003F
FFDD
FFF7
FFE2
0016
0057
002D
0003
FFD4
0025
0052
0051
FFBF
0006
0001
0016
001C
0001
FFEB
FFF2
FFD4
FFE3
000A
0009
FFF9
FFEC
FFE7
0013
FFDE
FFEE
FFE3
FFE5
FFDE
FFD3
000C
FFE9
FFC5
FFE9
0000
0031
003B
FFB0
FFD9
0006
0019
FFF3
FFD6
0019
001E
000E
FFF9
FFF0
0009
0004
0010
0014
FFED
0004
002C
002B
FFFF
0024
001B
0003
FFF9
FFF5
0003
0008
FFF8
0018
0005
FFDE
FFFC
0045
003B
FFEF
001A
000C
001E
0014
FFD1
0022
FFF6
FFE2
FFEC
FFC3
FFEE
FFE6
0023
005E
FFFB
FFE8
0006
FFB1
FFD0
FFD1
0003
FFDF
FFD6
FFE7
0001
0031
FFCB
FFEE
000F
FFF6
0025
FFDE
FFF2
000C
001E
000C
0034
FFE1
FFE5
FFCE
000D
FFD3
0012
004B
FFF0
FFFF
FFE5
FFE1
0049
000D
0018
FFF3
FFEE
0015
000F
FFEE
000F
0012
001F
0002
FFFC
0000
FFDE
0003
FFF8
001D
FFC0
0068
007D
000A
FFD5
FF94
FFE4
005E
0029
FFEE
002B
FF56
001A
0040
0006
0018
FFB4
FFD9
0014
0008
FFD9
FFD0
FFFC
0002
0008
0005
FFED
0011
FFDF
FFD9
0003
0008
000D
0010
000E
FFF8
001D
0009
FFF9
FFF4
0001
001F
000D
0005
FFEC
0001
FFF4
000E
001E
0014
0019
000C
0068
FFE4
FFD9
FFF3
FFFB
0044
FFF9
FFD3
FFC7
0006
001D
FFF0
FFCD
0011
FFF7
0029
FFBF
FFE1
FFFB
FFCD
000D
FFE9
0000
FFDB
0016
FFFC
FFF0
0000
FFE4
FFFE
FFAD
FFFA
000F
FFF9
0015
FFB0
FFC1
000C
001E
0038
FFFE
FFEB
FFDA
FFFB
001C
000A
FFDC
FFF3
FFF8
FFF9
FFFA
FFCC
0011
FFCC
FFD7
FFFB
0019
000D
000C
001F
FFDD
FFFE
FFED
0049
0001
FFF0
0017
FFF3
FFFE
001D
001A
0034
0019
FFFF
0010
FFDD
FFF8
FFFF
0007
0010
FFC9
FFD4
0002
0006
0017
FFFF
000C
0016
0017
0008
FFCF
FFD9
FFE7
0020
0009
0036
000F
FFF8
0020
FFE3
FFC5
FFDD
FFFC
0008
FFFF
FFDF
FFB7
FFFE
001E
000F
0005
FFFB
FFFC
FFF5
001B
0037
0036
0024
FFFE
FFFF
000A
FFEF
FFEB
FFC7
FFEA
FFEE
FFE3
0015
FFDF
FFD9
FFF4
0009
0031
FFE3
FFCE
FFD7
FFEF
FFEF
FFF8
0003
FFFF
0004
FFC6
0014
FFF2
FFEC
FFD2
FFEA
0005
0033
004E
0028
000A
FFC2
0006
0030
003F
001A
FFD7
FFDA
FFEE
0017
0034
0042
0023
FFFC
FFBB
FFEB
0029
0000
FFD4
FFCE
FFBE
0000
FFFC
0013
0008
FFE6
FFDE
0003
0020
0028
0016
0008
001B
0011
0023
000D
002A
0001
0007
FFE8
FFDB
0004
FFF3
FFE7
FFE3
FFEB
FFA7
FFC5
FFE5
FFF0
0010
FFA0
FFBE
FFD7
FFF4
0036
FFDE
FF9B
FFAD
FFCF
FFDE
FFDC
FFD1
FFBA
FFDC
FFC3
FFF9
FFD5
FFD5
FFCB
FFC1
FFF6
000C
0005
0005
0007
0014
FFFA
0001
FFF9
FFDC
FFF0
FFD6
FFCF
FFB8
FFE6
0016
001E
FFC3
FFC4
FFE6
FFCC
FFBC
001A
FFFD
0018
FFF5
0017
000B
0014
FFF2
000E
0010
FFFC
0005
000C
FFDC
001B
002E
003D
0015
0023
001E
FFFE
FFDB
001E
FFF8
FFD7
0003
0013
0008
001D
FFF2
FFF1
0009
0018
0011
0011
FFFA
FFF1
FFE7
000E
FFFF
0001
0014
0010
FFF8
0006
002D
FFFE
FFF3
002F
002D
FFE1
FFEB
FFDF
FFE1
FFDF
0018
FFD2
FFEB
FFE9
0011
FFE3
FFB0
001E
000A
0027
FFB6
FFAD
FFF8
001C
FFFE
FFAF
FFFE
FFF0
0023
FFB4
FFCA
0017
0019
FFDC
000F
FFEC
FFE6
004F
FFF3
0031
FFD1
0016
0060
0022
0008
FF93
001D
0029
0031
FFD7
FF92
FFE4
0032
FFD0
FFB6
FFF3
FFE0
FFFB
0026
0013
FFE9
FFEC
005E
0007
000F
FFF6
FFB8
0019
FFEC
FFF8
FFD4
FFA9
0006
0015
0006
FFAB
FFBB
0034
FFF3
0028
0008
FFD2
0021
FFDE
FFEB
FFDC
0010
0007
FFD7
FFE9
FFE8
000B
0019
001A
FFFB
FFE2
0012
002D
0010
FFF6
000D
0017
0018
FFCC
FFEF
FFEF
0012
000B
FFF2
002D
0034
FF9E
004F
FFE7
0046
0022
FFCD
004C
002D
002D
FF9E
FFD6
0024
0002
000F
FFA0
FFEE
000B
FFB7
FFC2
0021
FFE9
FFD1
0015
001F
FFE7
001E
FFE5
0016
FFF6
FFE2
0026
FFED
0043
FFC0
FFE0
0016
FFE8
FFED
FFEC
0011
0017
FFD0
000B
0005
000C
FFE7
FFDE
FFF3
FFF0
FFF1
0008
0015
0008
000A
FFAD
FFE7
001F
0012
FFF0
FFD0
FFE0
0030
FFF5
FFF8
FFF0
0029
001E
FFFC
FFF2
FFE8
FFC9
0015
FFFF
FFD9
001A
FFEF
FFDF
FFDC
FFEF
000B
FFE7
FFFE
FFF2
0010
0007
0002
FFEB
0013
FFD5
FFEF
0010
0017
FFFD
0008
0003
0034
0027
0022
FFFF
000D
0030
FFD7
FFCE
0002
FFC9
FFC3
0012
FFF2
0020
FFE8
0032
000C
FFBC
FFEF
002E
001D
000E
FFF0
0013
0010
FFEE
FFF2
FFEF
FFEC
0013
000D
FFEA
FFDE
0031
FFE5
FFD6
FFF5
0024
FFF0
0010
0029
FFFD
000A
0018
0041
FFFB
FFE2
FFFF
FFF6
FFF5
FFF4
FFE3
FFF2
0005
FFEF
FFDE
FFE9
FFFF
0000
FFF7
0013
0027
FFD5
0027
000B
0019
000E
FFAD
0009
FFEF
FFE3
FFF3
FFF2
0018
0050
0045
FFDE
FFEE
0009
FFFC
FFF3
FFD2
FFE7
0018
002A
0012
0016
FFEF
002D
0011
0005
FFFF
0019
001A
0024
FFFD
FFCC
0015
FFFB
0002
FFDB
FFC4
FFE1
FFA3
FFEE
FFE4
FFFD
FFDF
FFD0
FFC2
FFD5
FFE8
001B
FFCF
FFE2
FFF5
FFD2
001E
FFD4
0004
FFE2
FFB5
0010
FFD8
0004
FFED
FFE7
FFF6
0005
0008
FFDB
FFB8
0013
0008
FFF6
0038
001B
0022
000F
0033
0033
FFCC
0017
FFE5
FFD5
FF91
FFB4
FFF1
FFB6
FF89
FFCE
FFF5
0015
002B
FFEB
FFE9
001C
0017
0004
0032
0069
001F
FFFA
003C
0026
000D
0019
FFFF
0015
0000
0022
001B
FFDB
001D
001F
FFEB
FFBC
FFFF
FFBF
000E
0027
FFEB
000B
FFF9
FFDA
FFE6
0028
000D
FFFB
0025
002F
0018
FFF8
000F
0019
0018
0031
0007
0019
001F
FFF8
FFC6
000F
FFD3
FFC4
FFCF
FFCE
FFBC
FFA8
FFCE
FFD2
0023
FFF7
FFE8
FFBF
FFEA
000E
0012
0004
FFEB
0009
0016
0007
FFF5
0029
0016
FFD0
0012
0006
FFFA
0014
FFFB
FFDE
0011
001B
0020
0008
0011
0033
0003
0040
004F
0013
FFCD
FFC2
0015
004A
0016
FFC3
FFC3
FFD6
FFF6
001E
FFF2
FFF2
002C
000B
FFD5
FFC9
FFDB
FFFB
FFED
FFF9
FF97
FFD3
FFFC
000E
FFE5
FFB6
FFE5
0014
0028
0018
FFFA
FFB4
001A
0070
FFFF
FFFC
0017
000A
0008
0010
FFFF
0019
001A
000C
000B
0021
0038
0014
0004
0014
0017
0012
0032
0014
0001
FFE6
FFCE
FFF5
FFE7
FFBD
FFF5
0014
0015
FFFA
FFE1
002E
0013
FFEE
0024
0019
0031
0003
0006
0031
002C
0000
FFBC
0002
002B
0009
FFDC
FFEB
FFD7
FFF4
FFE1
000A
0025
0025
FFF8
0015
0013
001D
0000
FFEC
003E
FFE5
FFC8
FFF2
FFDF
0009
FFB7
FFCB
FFB5
FFD2
FFEC
FFB7
FFB3
FF97
FF99
0017
0033
0045
0018
FFE1
0044
004B
0000
0037
0013
0017
FFF3
000B
0039
001E
FFF6
FFF3
FFFC
FFFB
0026
0005
001B
FFDD
0017
FFFD
0053
FFEB
FFE8
FFE5
FFD9
FFE9
FFF9
0007
FFD0
FFE8
000A
0004
0002
FFF0
0029
001C
001B
0031
002D
FFE7
FFC0
FFC8
0001
0034
0020
FFFB
FFDD
FFE3
FF8F
FFD5
0006
0008
FFAE
FF5A
FFC3
0013
FFF8
FFBF
FF86
FFF2
0000
FFEF
FFB2
FF9D
0001
FFFC
FFF2
FFB1
FFEE
0025
0022
FFF0
FFF3
FF69
FFED
0023
000B
FFC3
FFC5
0015
003B
0013
FFBC
0015
0038
000C
FFF4
FFB6
000A
0035
FFFD
FFE0
FFF8
0036
0018
0019
FFFE
FFF5
FFC5
FFC4
FFF5
0005
FFFC
FFD0
FFC7
000F
FFE4
FFF6
FFF6
FFF4
FFDA
FFE3
FFBC
FFF4
000D
FFDA
0007
FFD9
FFC7
0018
0018
FFFA
FFBB
FFA7
FFD2
001E
0015
FFB5
FFDB
FFE8
FFF9
FFB3
FFC4
FFF6
0008
0006
FFC7
FFE5
0017
0023
FFFD
FFE3
000D
003B
0035
0071
0036
0010
FF8A
FFF3
0054
0024
0000
FFF1
0060
0031
FFFE
FFF3
0037
0041
002B
FFFE
0005
FFE3
0029
0024
000C
0030
0010
0022
000E
FFC3
FFD7
FFD3
001C
0014
FFBC
FFE8
000D
0016
000C
FFCB
FFD1
0031
0039
FFDF
FFE2
0014
002C
0014
FFEB
001D
004C
0030
FFDC
002F
FFC1
FFD9
FF9A
FFC1
000E
0019
0000
000D
FFDB
FFE8
FFCC
FFB2
FFC8
FFF6
FFE4
FFDD
FFC3
0023
0004
FFE0
FFF7
0007
0020
0019
0004
FFEB
FFDC
FFA1
FFD7
FFE7
FFC6
FFC5
FFB6
FFBF
FFF6
FFEA
FFD2
FFB6
FFCE
FFCE
FFA8
FFC7
FFEE
0017
FFF9
FFEE
0006
0011
0024
0019
0010
FFED
FFF6
FFF7
FFED
FFE0
FFE2
FFE6
001C
0009
FFBF
FFDA
FFF3
FFDA
0014
FFEF
0001
0035
FFFF
FFFB
000A
FFDB
0006
000F
000A
FFF1
FFE6
003E
FFEA
FFDE
FFBE
FFE3
FFD8
FFD0
FFC4
FFDA
FFDB
FFBD
FFD6
0004
FFFD
0013
0007
0000
002C
0026
0022
000B
0002
FFB8
FFC4
FFD3
FFDB
FFA2
003A
FFF9
FFC8
FFC9
FFAD
002C
0043
0026
0015
003D
0014
0021
0021
0018
001B
FFF2
000C
0019
0018
0015
FFD1
FFFA
FFE8
FFF5
FFF5
0021
FFF9
0000
0009
0005
FFEC
0020
002B
FFFC
FFFC
0040
0027
0022
000B
0000
0039
001C
0024
001C
FFF9
FFF2
FFDB
FFE6
0027
0017
FFE9
FFD1
FFC7
FFF0
FFE0
FFC7
FFCD
FFB6
FFEF
FFD4
FFF7
FFED
FFFD
FFF0
FFFA
002A
0027
001A
FFE1
FFF2
FFE6
FFFB
FFE8
FFD6
FFFF
FFF9
0007
0007
FFF8
0002
FFF5
0021
001E
0010
0012
0053
0008
0027
000B
FFF4
FFFE
FFF7
FFE4
FFD8
FFC4
FFEE
FFDB
FFFC
FFD7
FFB4
001C
FFE4
FFEC
FFF3
FFE6
FFF7
0003
0005
000C
FFD9
0049
0049
0029
0000
000A
FFF6
FFFF
002D
0011
001D
FFFF
FFF7
FFF3
FFFE
002D
FFEC
FFC4
FFA2
FFA2
FFE6
0041
FFF0
0013
0017
0008
FFEB
0017
002C
FFFE
0003
001E
0012
FFFE
FFEA
FFFA
0005
FFF7
0016
FFF6
FFE2
FFDF
FFCD
0017
000A
FFD9
0001
FFE1
FFA7
FFDF
FFFF
FFF0
FFF9
003B
0038
0030
FFFF
0023
0018
002D
0000
FFFD
FFEC
0009
FFF4
FFEE
0001
0021
0018
FFDD
FFDF
0031
000F
0000
FFE5
FFFF
FFEB
000D
000C
002C
0009
FFCA
FFCD
FFE3
0021
FFF7
000C
001A
FFF9
FFFB
0031
0008
FFEA
FFFF
FFFE
FFDF
FFEE
FFE7
002E
004E
001B
000F
0023
0026
FFF4
FFFC
FFB5
0042
001C
FFE3
FFA5
0003
FFFD
FFEF
FFE4
FFD4
FFEB
001A
0018
FFFF
000A
000B
0019
002A
000F
FFFB
FFF6
0028
0026
0030
FFFD
FFC6
FFDF
FFE9
FFEF
FFD0
0001
FFEF
FFFA
0026
FFE8
0016
FFF4
FFFE
FFCE
0014
FFFC
0008
FFBF
FFFC
001A
FFD3
FFEF
FFC7
FFE4
000F
FFD8
FF95
FFC2
000A
FFF8
FFF7
000F
0010
0006
FFFC
FFFD
0029
0004
FFF4
FFEC
FFE4
FFF5
FFE6
002B
0034
FFE2
FFE1
0002
000A
FFED
FFA9
FF75
FFC1
FFB8
FF83
003D
0032
0004
0012
FFCF
000E
FFF7
FFE1
0010
0024
0008
FFF1
0019
001F
FFE2
FFD1
0000
0048
0017
FFF6
FFDF
FFD1
FFD9
0001
FFEE
FFD1
FFD5
FFE8
002A
FFE1
000D
001F
0004
FFE4
FFBF
FFF5
001C
0028
FFE0
0012
000D
000C
0024
001D
FFFF
FFE2
0041
002A
000A
FFE3
001D
FFF0
FFDC
0021
0026
0027
FFC6
0005
0017
0013
FFD2
FFBD
003C
001D
FFF6
FFD8
0023
002D
000B
FFEF
FFF1
0016
0009
FFFD
0001
0019
0017
FFEF
000B
002D
000A
FFD3
0018
003D
0028
FFA8
0003
0034
0007
001F
FFEA
0031
FFE2
FFFC
0017
001D
FFF9
FFD5
FFD5
000C
001F
000A
FFDE
FFD5
FFEA
FFDF
FFCF
FFD1
FFF4
FFEE
001B
FFC0
FFD1
FFE6
FFCC
0025
FFBA
001E
0013
0003
0010
FFF5
0023
0026
0019
FFFE
FFF5
FFED
FFFF
002A
FFE1
FFCC
0013
001D
0008
FFE3
0005
FFF8
001C
FFEA
FFE8
000E
0002
FFE6
FFDF
0012
FFFF
FFE8
FFF3
FFD4
0032
FFE3
FFE2
000B
FFFE
0046
FFE7
003A
0015
0010
0018
0024
0044
0003
000D
FF86
0025
0000
FFCC
FFFD
FFD8
000C
FFD1
FFC6
0009
000D
FFC2
FFFC
0033
000C
FFA2
0007
002C
001D
FFFB
FFFC
0016
FFFC
FFC1
FFFB
001A
0019
FFB6
FFE5
FFD9
FFEB
FFDA
FFCD
000F
FFD8
FFF4
FFDD
000F
0008
0027
FFC0
FFF7
002A
FFF8
0025
FFD6
0011
FFD9
FFFF
0006
FFF6
FFC7
FFE4
0003
0007
0016
FFFA
0004
0007
FFFC
0014
FFFA
FFD2
FFDF
0027
002E
FFD0
FFF9
0030
0017
FFB5
FFFD
0017
0000
FFFE
FFEC
001B
001A
0010
0011
FFFF
FFF2
000A
FFD0
FFF2
000C
FFB9
FFF0
0014
000E
FFC5
FFB1
0029
0034
FFDF
FFD0
FFF5
0018
0005
001D
FFEA
000E
000C
FFFB
0017
0004
0003
000E
0005
FFF1
001C
FF91
0006
0005
0028
FFBA
0013
003A
0010
FFEF
0014
0063
0032
FFE9
FFF3
FFF4
000E
0007
0005
FFE2
FFB6
FFEF
FFF9
FFFD
FFE3
FFF8
FFF2
FFFC
FFE9
000B
0025
FFED
FFD8
FFDF
001E
FFEB
FF9A
FFF9
0016
FFF7
FFBF
0016
0013
0024
0003
FFD6
0049
003A
0013
FFF4
FFFB
FFFE
FFEF
0021
FFEA
FFEA
0028
001F
0006
FFDF
0001
0027
000F
FFE7
FFDF
0004
0016
FFF2
FFD6
FFFD
0004
0009
FFFD
FFFA
FFCD
0015
FF93
0020
0002
000E
FFEC
0012
002D
0003
0016
FFA8
0032
0021
0003
001F
FFB7
000C
0018
FFED
0019
FFCD
FFF1
FFF0
FFF9
0014
FFCC
0025
0028
0011
FFDB
0017
003E
0019
FFD7
FFE2
0022
FFE5
FFC0
FFE2
0005
FFD1
FFCB
FFB1
FFFF
FFF5
FFDE
FFFF
FFDA
FFFF
FFE5
FFD9
001E
0014
FFFF
FFD9
000E
003A
FFD4
FFFD
0028
FFD4
FFF5
003B
002A
FFEA
FFBB
FFF0
0020
0006
0011
FFFC
000E
0015
0026
FFCE
0010
FF8E
FFD5
0023
FFE5
FFD4
FFD0
0029
001B
FFD3
FFFB
0009
FFFE
001C
0003
000C
FFFE
0037
0004
FFF2
FFCD
FFE1
FFF1
FFF6
FFF9
FFD9
FFF6
FFE1
FFA7
FFDB
FFF2
FFC5
FFC1
FFF4
FFF4
0020
002E
0044
002C
001D
FFFB
0042
0034
FFEE
FFB9
FFD3
FFE7
FFD6
FFDE
0007
002C
003F
FFE9
FFF4
FFF5
FFF3
000F
FFD8
0018
0001
FFD2
000F
002C
0044
FFFA
FFD2
000E
FFF9
0002
FFB4
FFE0
FFC5
FFCA
FFCD
FFE8
FFFE
FFEF
FFF4
FFF9
FFF6
000C
0036
0022
000C
0021
FFEB
0016
0012
FFDC
FFCF
FFFB
001F
FFDE
FFAE
FFCC
004F
002A
0028
0029
FFE4
000B
FFFB
000E
000C
001A
0018
0035
0041
0022
FFF9
FFE0
0001
0010
0023
FFF2
FFC6
FFD5
FFE7
FFD9
FFE2
FFD2
FFE0
FFD8
FFD3
FFE2
FFFF
FFFB
FFF3
FFF8
001B
FFF8
FFDB
FFE1
0007
0024
FFDE
FFED
0010
FFFB
FFF4
FFEC
FFE9
FFFD
FFCF
FF98
FFEB
0007
0016
002E
0006
001C
FFFE
FFDE
000C
0008
FFF3
0016
0028
003D
0022
FFB5
FFDA
FFF9
FFF8
FF98
FFB9
FFCD
FFB1
0003
0018
FFF7
0020
0031
0012
FFE0
FFD9
FFEB
FFF5
0032
002D
0011
0036
0064
0036
000F
FFB9
FFE8
0005
0026
000B
FFC5
FFD0
FFE2
FFFD
0024
FFFC
FFDC
FFEF
FFE5
FFA9
0014
FFEC
0005
FFCB
FFE5
0029
FFFB
FFF0
001C
0020
0033
0039
003D
0041
0015
FFE5
FFD2
FFF0
FF99
FFB1
FFB7
FFEB
000D
001B
0002
