FFF8
FFF0
0013
FFEE
0008
000E
0003
FFF4
FFE6
FFF5
0023
FFED
FFFB
FFF1
0004
0003
0003
0007
FFFD
FFF6
0007
FFEB
FFF4
0010
FFF7
FFF0
FFE8
0014
0002
0020
0008
0008
000B
0001
0001
0005
FFFF
FFF1
0020
FFFE
0006
0005
FFFA
FFEF
0017
000D
0008
FFFD
0005
0021
0008
0017
FFF5
FFFE
0016
FFFB
FFF8
FFF1
FFFD
FFF9
0011
FFFB
FFFE
FFFB
000F
FFFF
FFE7
FFFA
FFEF
FFFD
0005
0002
FFF8
FFF9
001D
FFFA
FFE3
0008
0013
FFEC
FFF2
001A
0003
FFF2
000D
000C
FFF2
0005
0006
FFFB
0004
0022
FFED
FFF6
FFEA
FFF3
FFFA
001E
FFFA
FFF9
FFF0
000D
0007
0003
FFEF
0003
0003
0009
0012
FFFE
FFE4
FFFF
FFF4
000C
FFED
FFF9
FFF5
000F
0008
0001
FFF3
0003
000D
0003
FFFF
FFFE
0004
0014
