000C
0012
FFE7
001D
FFD8
FFDE
0010
FFCB
FFFD
0012
0017
001D
0023
0007
0028
003D
FFEB
FFED
0027
FFFA
FFE9
0001
0020
000C
000D
FFFA
0020
0008
0002
FFF6
FFFB
0020
0013
FFE8
FFFA
FFFF
003B
FFE3
FFDA
FFF8
0023
0005
FFF3
0016
0001
FFF5
000D
0012
FFF3
FFDF
000E
002D
FFBB
FFD6
0022
FFE9
FFFF
0006
0019
0013
0025
0017
002C
002F
001C
000D
0010
002F
003A
0014
FFE5
000B
0009
FFF3
0002
0021
0011
FFFC
0000
FFFE
0017
0002
FFF4
FFF4
0019
000C
000C
000D
002C
FFF3
0003
FFEF
0017
FFF7
FFF8
FFD5
0061
0021
000C
FFEA
0012
FFFA
FFFA
FFF2
FFF0
FFF2
0018
FFED
0005
0003
FFD1
000B
FFF3
FFFA
FFFC
FFE1
000B
0009
FFF3
FFDE
FFCA
FFE8
FF9B
FFC4
FFFF
FFFA
0008
0009
002B
FFDB
000F
0019
FFB4
FFDC
FFEC
000F
0009
FFB4
FFBD
FFB3
000C
FFD9
FFAC
FFF8
0033
FFD1
0021
FFEA
0015
000E
0025
0017
FFF6
FFB9
FFDF
FFDE
FFE7
FFC1
FFD2
FFB1
0024
FFF3
0028
0025
0008
0007
0014
0012
FFF4
FFB8
FFCE
FFE6
0004
FFFE
FFFC
000B
FFEB
FFD0
FFCF
0028
FFF0
FFFF
0028
005E
FFDF
FFF6
0017
002D
FFFD
FFF0
FFF2
FFCD
FFEE
0011
FFC5
001A
0026
0003
FFCE
000D
0004
0000
FFD2
0012
0042
0039
0038
0058
002B
FFF2
0005
0024
002D
FFFF
0006
0011
FFF7
FFDD
FFF3
FFD0
000E
0029
FFE8
FFD3
0012
0056
0020
000B
000E
0022
FFFF
002C
0047
0009
0001
0008
0011
0000
FFF3
FFF2
003F
001B
0005
0010
0013
FFF1
FFBC
FFB3
FFF7
001A
000C
FFEE
0007
0042
0036
FFF0
002A
FFFD
FFF4
0022
0030
FFC8
FFB6
FFF7
000A
FFEB
FFF2
0025
002E
0023
0026
002E
0000
FFDE
FFD6
000B
FFFF
FFE1
0016
003B
FFF0
FFEE
FFFA
0048
0009
000F
001C
0014
FFE7
000E
0002
000F
0008
001C
FFFA
FFF7
FFFD
FFFB
FFFE
002B
0004
0010
FFF4
000A
0010
0000
FFCE
0002
000E
FFFA
FFC9
FFF9
0012
FFBD
FF99
FFE5
FFF5
0005
0022
005E
0004
FFF8
FFFC
FFFA
0008
0000
0009
0008
FFF8
FFEE
FFEE
FFF5
0004
FFF7
FFFA
FFF2
0002
FFFD
FFFF
0000
FFFB
FFEF
0004
FFF2
0006
FFF8
FFF1
FFEF
FFF4
FFFC
000C
0001
FFFE
0002
0003
FFF6
0003
FFFA
0005
FFFE
0008
FFEE
FFFE
FFF4
0006
FFF0
FFF0
0001
0005
FFFB
0009
0002
FFF5
FFFB
FFFE
FFFB
0004
FFF0
FFFD
FFF1
0005
FFF7
0008
FFFA
0006
FFFE
FFF6
FFF9
FFF9
0008
0000
FFFC
0000
FFFD
FFFD
0003
FFF1
0005
0005
FFFC
FFF7
FFF9
FFF3
FFF3
FFF1
FFF2
FFF3
0001
0005
0007
FFF8
FFFD
FFF2
FFF0
FFF4
0008
FFF8
FFF1
FFFA
FFEF
0002
FFFD
0008
0008
FFF7
FFF4
FFF6
0000
FFEF
0006
0003
FFFF
FFF3
FFFC
FFFE
0008
000A
0004
FFF6
0003
FFFC
0009
0003
0003
FFF9
FFF1
0000
0000
FFFE
FFEF
FFF7
0008
FFEF
FFEF
0008
FFFC
FFF6
FFFB
FFEE
FFFD
FFFD
FFF0
0001
FFF5
000C
FFEF
FFF6
FFFF
FFFE
FFFD
FFF2
FFF1
FFF7
FFFF
FFF4
FFFB
FFF3
FFFF
0000
0009
FFEF
0003
FFF3
FFF6
FFEF
0009
FFFF
0008
FFFC
0005
FFF5
FFF8
FFF1
0007
FFEE
0008
FFEE
FFEE
FFF7
0004
FFED
0008
0009
FFF5
0007
FFEE
FFF7
FFF8
FFFC
FFF6
FFF1
0003
FFF0
0007
FFFF
FFF3
0003
FFF2
FFF4
0003
FFF4
FFF2
0001
0005
FFF4
FFF2
FFF9
FFF9
000B
0002
0002
0005
0000
FFF2
0006
0002
FFFD
0001
0006
FFFA
FFFC
FFF6
FFF0
0002
0004
0002
000C
FFF9
FFF9
FFF3
FFF2
FFFA
FFFD
FFFB
000A
0003
FFFC
FFFF
0005
0006
FFF3
0005
FFFC
FFF9
FFFE
FFFD
FFFB
0002
FFF5
FFFD
FFF3
FFF3
FFEF
FFF6
0005
FFEF
FFF9
0009
FFEE
0003
0006
0008
FFFE
0008
0001
FFEC
FFFF
0002
FFFE
FFF5
FFF8
FFFD
FFF0
FFF6
FFFC
0007
FFFE
FFFD
0008
FFF8
0008
FFF0
FFF3
FFFF
0005
0005
FFF1
FFFC
FFF8
FFFC
0009
FFF7
FFFD
0008
0007
FFF8
FFF2
FFF9
FFF1
FFFC
0000
FFF0
FFF7
0000
0000
FFF3
FFED
FFED
0006
0000
0006
000B
FFF2
0004
FFFB
FFFD
0002
FFF9
0006
FFF0
FFF6
000C
0001
FFF9
0011
001B
FFC5
FFDF
FFF9
0024
FFC8
FFD7
FFFE
0010
FFF8
FF8E
FFED
FFE4
FFEE
FFE8
FFE2
FFB8
FFE3
000B
0001
FFE1
FFF4
FFF6
FFEE
FFC2
FFFE
FFFB
FFF2
FFE3
001B
0003
002E
0030
000E
001C
0017
FFFA
FFC3
0000
FFE8
0009
FFFD
000C
0003
0008
FFF5
FFED
FFFC
FFE9
0004
FFEC
FFE2
FFF0
FFEE
FFDB
000A
FFFD
FFFC
0009
000F
0014
000D
FFF0
FFF8
FFE8
0003
FFEC
FFFD
0007
FFF8
FFDF
0007
0019
FFDB
FFFF
0005
FFF2
FFF7
FFF3
FFDE
0012
FFF2
FFF7
000C
0020
FFFA
FFF8
FFF5
0007
0007
001C
FFED
0005
001B
FFEB
0020
001B
FFEF
FFFE
0009
FFEE
0008
FFE3
FFD0
FFDB
003A
000F
FFCE
0018
000F
0013
0003
FFFE
0000
0017
000A
FFEB
0006
FFFC
FFF7
0003
FFFC
FFF6
0017
000F
FFFD
FFFA
FFEC
0018
0001
0015
FFF7
0031
FFEF
0037
FFDB
FFC5
FFE2
0004
0001
000A
FFF3
FFDB
FFE6
0006
FFF8
FFE8
0018
004A
000D
FFF3
0011
000F
0004
0035
FFF6
FFF8
FFDF
000E
000D
001E
0005
001B
FFF9
0013
0008
FFFD
FFFB
FFFF
FFED
FFF9
000E
FFF9
FFD1
FFDF
0024
0002
FFE8
0008
0007
FFF9
FFCE
FFF8
0012
000B
FFF5
0048
FFF5
0038
0012
FFFD
FFEE
FFEA
000A
FFE9
0003
0003
FFE3
FFDB
FFE8
FFD5
0004
FFE7
0016
FFFE
FFFD
000B
0014
FFED
FFFF
0003
0001
FFF1
000D
FFF4
001A
FFF2
0004
001B
0009
FFF5
FFC0
FFCE
FFE3
0016
FFBD
FFE5
0026
FFE5
FFCC
FFFB
FFE6
FFF5
0007
0018
FFF7
001D
001C
0020
FFD0
FFED
0008
FFEE
000A
FFF5
FFF3
FFEF
FFF5
FFF4
FFD8
FFDD
FFFE
000D
0005
0001
0000
000C
000C
FFFD
000B
FFE8
FFF6
FFF4
FFD9
0010
0002
FFCC
001F
0008
FFF3
FFF7
0008
FFEC
FFF7
FFF8
0001
0002
FFF1
FFC9
0027
000A
FFE7
FFFA
FFF1
0020
0029
FFFA
FFE0
FFFC
FFF5
FFF8
FFEF
FFF6
FFF6
FFEC
0017
001D
FFE4
FFE2
0008
0026
000F
0010
FFE1
0007
0007
FFDE
FFFC
FFEB
000A
FFF8
0004
000A
0019
FFDA
0006
0008
FFD7
FFF7
0008
FFCD
0002
0008
FFDD
FFF4
0016
0008
FFFD
FFF6
0013
006E
001E
000E
FFF8
FFC4
FFF5
000D
0008
0006
000D
001A
FFFC
0023
0003
FFD4
FFBE
0007
0029
0009
FFE7
FFFB
002D
FFD9
FF96
FFCF
0008
FFFD
FFF6
0019
0029
FFFC
FFFD
0011
FFD3
FFDC
0005
FFFB
0003
FFE6
FFD3
FFD9
001C
001C
000D
FFE9
0018
0024
0025
0050
0031
0025
FFE4
002F
002A
0011
FFC8
FFF7
0008
FFFA
FFCE
0008
0013
FFFA
FFFB
000D
002C
0059
FFD8
FFCD
0016
0004
FFF6
FFF7
0017
0028
0001
000F
0042
0014
FFDF
FFF1
0019
000D
FFF2
FFE6
FFF0
FFB3
000F
FFD6
FFE7
FFDC
0036
002D
000E
0002
0000
0028
0063
0042
002E
0016
FFC8
FFF6
0022
0015
FF96
FFC6
FFD0
FFD3
FFB8
FF84
FFD2
0019
001F
0018
0014
0013
FFED
FFF5
0016
000D
001C
000B
FFFE
FFFB
0035
FFF1
FFDB
0015
FFF9
002F
000D
FFDF
FFD7
0042
0010
0006
0006
FFF8
0005
0002
000C
FFFA
FFEB
FFE5
FFE8
000E
000E
001A
FFAF
FFD0
FFF2
0038
FFD9
FFAD
FFF2
FFFA
000D
000F
001A
003A
001A
FFCE
FFDA
FFFF
0035
FFEF
005B
0010
0001
FFF2
0041
0011
000C
0003
0005
FFE8
FFEC
0013
FFFA
0014
0013
FFF9
FF9A
FFF9
002D
FFD8
FF9B
001B
0009
FFF7
000A
0020
0024
0018
000E
0021
0045
000C
FFEE
002E
0011
FFF2
FFE4
FFDF
001A
0023
FFFF
0017
0037
0066
FFB1
FFBB
000B
002D
FFEA
FFF7
0015
FFFC
0019
0003
0032
0028
002D
FFF7
000B
0012
0012
001A
0034
0011
FFDC
0012
0023
0019
FFE1
0011
0001
001D
000D
002C
0001
FFE8
0000
004A
000E
FFB5
FFA2
FFDF
FFC0
FFD1
FFFF
0001
0006
001C
0029
0015
0024
0001
FFDC
FFE8
001E
000B
FFE9
0003
FFFE
0013
0024
001F
FFFF
0010
0029
FFFA
002F
0020
0017
FFE2
0018
0036
FFE9
FF95
0026
FFEB
FFD2
000F
0011
FFF7
0023
0002
001E
002A
FFFC
0003
000B
FFBF
FFD9
0020
001E
FFEE
FFB8
FFE2
FFB0
FFB1
FFE4
0023
0007
FFE4
0026
FFEE
000B
FFB6
FFF7
0005
0017
FFE3
000D
FFE8
001C
0002
FFFE
0004
0024
FFFD
FFF4
FFAE
FFA1
FFD5
000C
FFF7
FFDE
FFEE
0018
FFE0
FFE1
FFF0
FFE1
FFEF
0011
0012
0017
0010
FFD1
0014
0020
0027
FFEB
FFED
0017
FFE7
FFF0
0024
0013
000A
0012
001D
0004
000A
0000
001C
0006
FFF4
FFC3
0024
0020
0015
FFFE
FFCF
001D
0018
0033
0018
FFD6
FFBF
002D
FFF4
FFFD
FFE9
FFE4
FFFB
FFFF
FFFA
FFCA
FFF3
0011
0005
002B
FFD9
000D
FFF3
FFFE
FFE3
0012
0008
FFDF
FFD4
0010
000E
FFB2
FFDE
001B
0017
FFC0
0019
001C
001B
FFA4
FFEE
FFEC
0006
0009
FFC4
FFF9
FFF8
FFF5
000E
FFF8
001E
FFDA
0037
0000
001D
FFC6
0009
FFF8
0008
0030
0001
FFFC
FFD1
0014
0005
FFDA
FFD6
FFE5
FFED
001C
000E
FFF8
FFE1
0008
FFFC
000D
0007
0001
0000
002E
0010
FFEC
001E
FFBC
FFA8
FFCC
FFCF
FFFF
FFC5
001E
FFE9
0022
FFEA
000D
0023
0019
001E
FFF5
0016
FFDC
000F
0031
002A
FFFF
FFF1
0017
0025
0016
FFF9
FFB0
FFC9
FFFB
FFE5
0009
FFF7
FFEA
FFE8
FFFD
FFEE
0006
000D
FFAC
0022
001E
FFEA
FFFB
0026
001F
FFFB
0005
0037
0038
0028
FFFE
FFDC
FFCC
FFE6
FFE3
FFF7
FFF7
0004
0004
000E
FFE4
FFFC
001A
FFE9
FFF1
0016
FFDC
FFF3
0025
FFF2
0003
FFE4
FFF3
FFE1
0013
0005
FFDC
000E
0034
0021
0019
FFEA
FFC7
FFFA
FFF8
FFD9
FFE8
001E
001B
FFE2
FFEA
001C
0018
FFFD
FFAA
FFFB
0000
000A
000F
0024
FFE5
FFD9
FFEB
0012
FFF3
FFF6
000C
FFE2
0014
000D
FFED
FFF0
FFFC
0012
0002
0016
FFE0
002B
0008
FFDF
0004
FFFD
FFE7
FFEB
FFE7
000D
FFF2
0020
0056
001D
FFFE
FFEB
0033
000F
0022
FFF6
FFFD
0006
000E
0002
FFDB
FFFE
FFF1
0000
005B
000C
FFDC
FFC2
002D
0013
FFF1
FFD9
0009
001C
0029
0009
0002
0024
001A
001D
FFEF
001E
FFEF
FFEB
FFB8
000C
0019
FFFB
FFEC
0009
FFFD
FFD3
FFED
0001
FFEE
FFE3
001D
0025
0031
FFF9
000F
0002
0005
0010
0010
FFF2
0004
FFE0
001D
0022
FFFE
FFF1
0020
FFF7
FFD0
FFD8
FFEE
FFE5
0021
0001
FFDB
000E
FFF4
FFE8
FFCF
0004
003C
003B
FFEA
FFFC
FFDD
FFCA
0013
FFF0
FFF9
0014
FFD7
0003
0017
000C
FFCF
FFE7
000C
FFFB
FFE3
0004
0028
0016
FFE7
FFEB
0003
000D
FFE1
0003
FFE9
FFFA
FFF2
FFF3
001D
0023
0009
000D
FFFA
FFD1
001F
0018
FFDD
FFCE
0009
001D
FFE5
001E
FFE9
FFED
FFF7
FFF9
0006
FFF7
0004
FFD9
0004
0003
FFE7
FFFB
FFF9
FFFD
FFFF
0010
FFBC
FFAE
FFF9
FFEC
000B
0023
0008
0005
FFEF
002B
0029
FFF6
FFFB
FFFF
FFE9
FFED
0003
0029
0014
FFF5
FFE2
0038
001B
0016
0016
0016
0015
0016
FFE5
FFD5
0009
FFC0
0005
FFFF
0008
0017
FFE8
000B
002B
001F
FFE8
0008
001E
0019
0014
FFFE
FFEA
FFE1
000F
001D
FFDD
FFE6
FFC2
FFDE
FFF1
FFFD
FFDC
FFDE
001C
FFEC
000D
0013
001E
0010
0020
FFFF
FFE8
FFED
FFE2
000F
001A
FFF9
FFF1
000F
0008
0026
FFF8
FFFD
0015
0024
000F
FFE3
FFF9
0029
FFFB
FFE6
0007
FFC6
001F
FFCD
FFD4
FFF9
000C
FFCD
FFF6
0026
001B
FFED
FFF2
0009
0011
001C
FFF7
FFE2
FFE8
FFED
FFD2
FFF2
000E
0015
FFD7
002A
0001
FFF9
FFEB
0009
FFCB
0027
0012
FFE7
0035
0006
FFF1
FFBE
0013
FFF7
0010
FFE0
0005
FFF6
FFD7
FFEC
0021
0016
FFB8
FFC6
000A
0009
FFFA
0010
0007
FFCD
0012
0035
FFF0
0014
FFFD
000D
0018
001C
000A
000F
FFF7
0008
000A
0015
FFED
FFF8
FFE1
0003
FFEB
FFF4
FFEC
FFF7
0019
FFF9
FFDE
000D
FFCD
000B
FFFC
0005
000E
0015
0010
001B
0001
000E
FFD7
FFD3
FFF4
FFF6
0000
FFB2
000A
0008
FFE6
FFC8
FFFF
FFF2
FFEF
0006
FFE1
FFF8
000F
FFF7
002C
000B
0019
FFC4
001E
0019
FFEF
FFCA
FFF5
0001
FFEA
0004
FFEC
FFE9
FFF8
0002
002D
0018
FFB6
FFC2
FFEB
FFFF
FFD7
0009
FFED
0011
000C
0008
0005
000F
FFFF
FFF9
FFF8
FFF7
0009
0004
FFF4
0000
FFFC
FFF0
FFF2
0005
FFFB
FFF7
FFFE
0006
FFFA
0001
0006
FFFB
0003
FFFC
FFFD
0002
FFF4
FFFD
FFFF
000A
0009
FFFB
000B
0007
FFFC
FFF9
0000
FFFA
FFF0
0008
FFF6
0005
FFFB
FFF5
FFF6
FFF2
FFF0
FFF7
000C
0004
FFFF
0005
0007
0004
FFF4
0008
0004
000A
FFF4
0009
FFF5
000A
FFF7
0004
FFF2
0000
FFFD
0005
FFF7
FFF9
FFFA
0007
FFF0
0007
0008
FFFB
FFFC
0000
FFF6
0007
FFF0
FFF5
FFF3
0008
FFF0
FFF1
FFF0
FFF9
FFF5
FFF0
FFF5
0002
0002
0001
0009
FFF4
0003
FFF5
0004
FFFC
0005
FFF5
000A
FFF1
FFF1
000C
FFF9
0008
FFF7
FFFE
FFFE
FFF7
0005
FFFD
FFFE
FFF9
FFF7
FFFB
FFF6
000B
FFF1
000A
0002
FFF5
FFFF
FFFD
0001
FFF5
FFF1
0004
FFFF
FFF8
FFFA
FFF1
0000
000A
FFF5
000B
FFF4
0006
FFFC
FFF0
FFF7
0004
FFFC
0005
0005
0009
FFF5
0004
FFF4
FFFF
0006
0005
FFF5
0006
000A
FFF2
FFFF
FFFA
000B
FFFD
FFF7
FFF1
FFFE
FFF3
FFF0
0007
FFF8
FFF6
FFF5
FFF9
0005
0009
0005
FFFB
FFF5
0009
0006
0007
0004
FFF1
FFF8
000A
0002
FFF3
0008
0002
FFF6
0001
0009
0005
FFF7
FFF8
0001
FFFC
FFF3
FFF6
000C
FFF9
FFF7
0005
0001
0002
FFF7
FFF2
FFF5
0002
FFF0
0005
0003
FFFA
0005
FFF2
FFF3
FFF2
FFF9
0004
FFF1
FFF3
000C
0001
FFFD
FFF7
000B
FFFB
FFF2
FFFC
FFFB
FFF2
0004
FFF8
FFFD
0002
FFF8
0006
0009
FFF2
0005
FFF8
000A
FFFE
0006
0006
FFF6
0007
0009
FFFF
0004
FFF9
FFF7
0006
FFF7
0004
FFFC
0000
FFF6
0009
0009
0000
FFF5
FFF8
FFF6
FFFD
0002
000C
FFF2
FFFC
0003
0009
FFFC
FFFF
0004
0001
0005
0009
0000
000A
FFF0
0005
FFF5
000A
FFF8
FFF0
FFF9
0009
FFFD
000A
FFF0
FFFE
FFFF
0009
0004
FFFB
0007
FFFE
000A
FFF6
FFF7
FFF1
0006
FFFF
0000
0008
FFFC
FFFC
0009
FFFC
FFF2
0008
0007
FFF9
FFF9
000C
FFF8
FFFA
FFF4
FFFD
FFF2
0001
0006
0007
0003
FFF3
001D
FFFF
FFDF
0019
001A
002F
FFF3
0006
0004
0001
FFED
FFFB
0007
0024
FFF3
FFDB
FFC7
FFF8
FFE9
0044
0000
FFE3
FFFD
002E
FFFD
0018
0021
FFD0
FFDB
FFC6
0006
002A
FFB8
FFD4
FFF3
0005
0013
003C
FFE3
0024
0017
0013
FFE9
000D
0017
001F
FFFD
FFF2
FFF2
FFD9
FFF8
0032
FFD7
FFEC
000F
0011
002B
0006
FFEF
FFDE
0007
0003
FFF2
FFF7
001D
001E
001A
FFC8
FFDE
000C
001B
FFE5
000B
0012
0007
FFFB
0009
0007
FFFE
0019
FFEB
0007
0007
FFD8
FFD9
0039
0017
FFD8
FFF9
0022
FFC2
0015
000F
FFF2
FFF8
0005
FFD7
FFE2
FFEB
FFED
0013
0009
FFC9
0009
0016
FFF6
000D
0002
FFEA
FFFD
001E
000B
FFE5
FFDB
000E
0040
001D
000C
FFE3
0048
0017
FFE4
FFE2
FFF0
FFF6
000D
FFE7
FFC0
0029
0013
FFDA
FFED
000E
0010
FFF9
0027
FFE5
FFD2
0001
000C
FFE5
FFC7
FFC2
FFBC
001B
0038
FFFA
FFED
FFE7
000A
0007
FFD8
FFDA
0038
0000
0001
FFEB
FFFB
FFF2
002C
0008
0009
FFD3
0032
FFF1
0016
FFE3
000F
FFE3
002F
0006
0017
000A
FFFF
0019
0015
0019
0027
FFD3
FFD1
FFFE
FFE9
0000
FFC7
FFFC
000B
0008
FFFC
FFF5
FFDA
FFDD
0022
FFBF
FFFE
001E
003D
FFED
FFF6
FFFA
0039
FFFA
0009
FFE8
000F
001B
FFF9
000F
FFF1
0050
FFEC
FFDB
001B
FFEF
FFCF
FFE5
FFC8
FFFD
002B
0026
0004
0022
FFFB
0014
0026
0006
0043
0021
FFF1
FFEC
0008
FFDC
FFC9
0023
001F
003D
FFDF
FFED
0006
000C
0011
FFCF
FFF9
0006
0030
FFCC
FFF2
002F
000F
002D
0008
FFDB
FFEE
FFE3
FFE1
FFF5
FFE3
FFE5
0004
002F
0032
FFE5
FFCF
0000
0006
FFE7
FFF2
0017
FFED
FFFB
002F
FFEE
FFF9
0016
0008
000A
FFE6
FFE2
0002
000E
FFD5
0019
0016
FFF0
FFC7
002C
001E
0024
FFE0
000F
002A
0024
FFE8
FFB7
FFFE
0003
FFED
FFF8
0010
FFD5
001A
002F
0008
FFDA
0003
FFDB
0003
FFEA
003C
FFE8
FFF9
0004
0002
0002
FFEF
FFF5
FFED
000F
000C
0016
FFFE
FFDC
001A
FFED
000B
FFC4
0015
003A
0021
FFF7
001D
FFFE
001F
000A
FFF6
FFFF
0016
000B
0006
0009
003F
0056
004B
FFF2
FFD9
002F
0026
0008
001B
0014
002A
0014
0023
0016
0012
FFBF
FFFD
000F
FFFC
FFFC
FFEF
FFE7
FFE2
002B
001C
FFF0
0010
FFFB
FFC9
FFFF
FFCA
FFFB
001C
FFC3
FFED
0007
0019
FFD8
000E
0017
000E
FFBE
FFD9
0021
FFE4
FFF8
0000
0015
FFF1
000D
0010
FFEB
000A
0005
0015
FFF3
0012
000F
000A
003D
000C
0018
0053
0030
FFFF
0005
FFF8
FFFE
0024
FFA6
FFF7
0007
FFFD
FFF8
0013
0021
FFCF
0036
0039
0013
000D
0009
0004
0021
002E
FFAE
FFED
FFFF
0007
FFF8
FFE8
FFDF
FFE7
006B
FFF8
FFD0
FFBD
0013
000A
FFEF
FFFF
FFE0
FFFF
FFF3
0020
FFDA
FFD3
FFED
FFE1
0036
0056
0027
FFB8
FFEC
000D
0001
0008
FFFD
FFF8
FFF5
0000
FFD3
0008
FFE8
0005
0006
0034
004E
FFE3
FFF2
0032
003F
0002
FFB4
0006
0008
FFF7
0007
0005
FFED
FFDC
0017
0017
FFDD
FFB6
000C
000D
FFF6
0009
FFC6
FFE6
FFF8
FFFD
FFFA
000C
001A
FFFC
FFFF
0007
0015
0009
000C
0028
000F
FFB4
0026
FFF6
0002
FFC1
0011
FFF5
0007
FFDB
FFF7
FFD1
FFD2
FFE0
001F
0008
0002
003C
FFB9
FFCD
000E
0009
FFF6
0041
001C
FFF2
000D
001A
0026
FFD8
FFE9
000F
0011
FFFB
0013
001B
000A
FFEF
FFED
0003
000C
0000
FFDE
FFF7
0055
0049
000E
0057
0059
0012
FFCC
FFF3
0019
FFE1
FFE7
0026
000B
FFFE
0015
FFEE
FFFD
0005
0029
0013
0002
0039
FFE5
0003
FFF0
000B
FFCB
FFF7
0001
FFE7
003C
FFD7
FFE0
FFEA
0016
FFC7
0000
0000
FFBF
FFD5
FFFF
0017
FFD3
0007
FFF2
000F
FFE2
FFE3
0008
FFD2
0005
0006
0000
FFF0
0009
000F
FFFE
0007
0007
000C
000C
000A
FFE9
FFD2
FFD6
FFF3
FFFB
0009
002D
FFF3
0002
002D
0022
FFF9
FFDF
0007
FFF4
0026
001D
FFD4
FFAC
FF9D
003D
FFED
FFB6
001E
FFFE
FFE4
FFF9
0024
FFB3
0010
0005
0025
FFF6
FFEC
FFE4
0005
0008
FFF3
0005
000F
FFE1
0000
FFF7
0036
0015
FFE8
FFFC
001E
FFFB
001A
FFEE
002C
FFF9
0001
0004
0011
0015
0029
FFEF
FFEF
000C
003B
0017
FFEA
FFCF
FFEC
FFD0
FFD8
0002
FFE9
FFE5
FFD7
0021
0030
FFEE
FFF1
000F
0029
001F
002F
FFED
FFFC
0020
FFE5
002C
000C
FFF2
0022
001A
0000
FFF3
0014
FFFC
0005
003C
002B
FFF2
FFDF
002D
0006
FFFB
FFEB
FFEA
FFE5
0000
000D
0003
FFC1
FFF9
FFE4
FFC5
FFB4
0002
0001
FFD5
FFEF
FFE4
FFFB
0008
000E
0008
FFF4
FFEE
FFED
FFE9
FFCE
FFD6
FFDD
FFF6
FFE4
FFF1
FFFD
FFDF
0008
FFFD
000A
0013
002D
0031
0000
0034
0006
005B
0046
FFF9
FFD2
0006
0012
0011
FFF4
0014
0010
0014
0002
001C
0003
001C
000B
001C
0003
0023
0003
FFD8
FFE8
FFF6
002C
000C
FFE6
FFF6
0024
000C
0003
FFEF
FFC1
000A
004D
0031
0017
FFE0
002F
002B
FFE8
FFF0
FFEF
0008
FFF4
FFF5
FFF9
FFFD
FFFD
0023
0002
000D
FFFD
FFF2
0002
0006
0017
FFE5
FFF4
FFF4
0011
0024
003C
FFE2
0000
0034
0033
0015
FFF3
FFCA
FFF2
FFFB
FFF1
0012
FFEA
FFF7
FFFE
FFE7
0003
FFF4
FFF8
FFCE
001B
FFEE
0017
002C
FFE5
001A
FFE7
0006
FFEF
0014
001F
FFF6
FFDC
0002
000D
FFEB
FFEB
FFF6
FFEB
0016
0000
0001
0023
FFED
FFEE
0006
FFEC
0009
000E
FFE7
FFBD
0007
001A
0001
0011
FFF4
FFCC
FFE0
FFCF
FFF9
FFD6
FFFC
0006
002B
0022
000A
000C
FFF9
FFE5
FFF9
0014
FFE8
FFD5
0014
FFE4
000C
FFF6
0010
0005
FFF8
001C
0004
FFF4
FFEB
0058
FFFA
0015
FFD3
FFDF
0022
FFE5
FFF7
FFE4
002A
000D
0001
000D
000F
000D
0009
0044
FFE8
0019
0036
FFE0
FFF8
0023
FFE6
000D
000F
FFEF
000A
0006
FFE8
FFF9
000F
FFE6
0007
FFED
002B
0020
FFEF
000D
FFE5
FFE4
0002
FFFF
FFF2
FFFC
FFD9
FFF8
FFFF
FFC3
FFEA
0014
0007
0012
0010
FFF6
FFD0
FFF1
0032
0016
FFEF
FFF5
002A
0024
FFED
0006
FFF4
001F
0014
FFF8
0004
FFFE
FFAD
FFE5
0008
0001
FFFB
FFD8
0012
0000
0005
FFC4
FFF4
FFEF
FFB3
FFD9
FFF5
FFBB
FFFA
000F
001D
0025
0004
FFFB
FFEB
FFD8
0018
0013
0014
FFDF
001F
0022
0042
0021
FFF9
0022
0003
FFFF
FFEC
FFF1
FFE7
000A
000E
FFEE
0023
FFEE
0018
0035
FFF5
FFEB
0003
0000
0018
000C
FFFA
FFD7
000F
FFF7
001D
0021
FFEF
0010
0007
FFEF
001B
002B
0014
FFEB
000E
000D
FFE3
0004
FFFF
FFED
FFE4
FFF9
0018
FFD7
FFDB
FFEC
0038
0018
0011
FFDF
0046
FFE2
FFE1
FFF8
FFD9
FFCD
FFFA
0027
FFF1
002D
0022
0000
FFFB
0037
0005
FFDA
FFF2
0009
FFFF
FFB3
FFEC
0009
0043
0022
FFF7
0025
0021
0002
0038
001A
0018
0011
0005
FFDB
001C
0005
001D
001B
FFF1
FFEB
FFF0
0032
FFEB
FFDF
FFDC
0033
0013
0011
FFEF
FFFC
FFEE
0019
FFF2
FFD1
FFFD
FFCC
FFF9
FFF6
FFDF
FFE0
FFE8
FFF9
FFF8
FFD1
0043
001F
0016
FFE3
0004
0002
000D
0015
000A
FFFB
0013
001B
FFF0
0013
0007
005B
0004
FFF0
FFF9
0005
000F
FFDB
FFE0
FFE0
0005
FFDB
FFD5
FFF0
000E
0004
FFBE
002D
0002
0004
0017
0007
0001
FFFD
FFFC
0019
0020
0021
001E
001E
0013
0009
0003
0014
0017
FFFD
FF9F
FFFF
FFE7
FFE7
FFFC
0017
0006
0033
FFE6
0007
0023
0007
0002
0000
FFDB
FFE1
FFF7
FFD6
0013
FFF1
FFE4
FFF0
0000
FFE9
FFE2
FFCD
000E
000E
FFBD
FFF5
0027
FFE5
FFC4
0015
0002
0027
0015
0024
003E
0037
001D
0044
000A
FFE7
FFF5
FFD1
0024
FFFC
FFF0
FFEF
FFDE
FFFB
FFED
0018
0012
0020
001C
0029
0010
0003
0003
0020
0026
FFEF
FFF9
0007
FFF3
0025
FFF5
FFDA
0037
FFE3
FFB0
FFF1
001A
0005
FFF5
FFFA
0020
FFFA
0019
0002
001F
FFF8
0015
FFE6
002C
0016
FFFD
FFFF
0028
FFF7
FFEF
0004
000F
0001
0001
FFFF
001F
0019
FFD9
FFFB
002A
0019
FFFD
000D
FFE3
FFF3
0017
0020
0017
FFED
FFF4
000E
000B
0007
FFE5
FFF2
0011
0013
000F
0000
FFFC
FFEF
000C
0035
003F
0008
0004
0022
0038
001E
FFF0
0017
0024
0030
001F
0011
FFFF
0042
0005
001A
FFCD
FFF9
FFD0
FFD2
FF7C
FFF9
002F
000A
003B
001A
0012
FFD6
FFE4
FFFA
FFDA
FFF9
FFEC
FFEA
0018
001A
000C
FFFE
000A
001F
FFF0
000B
002E
0037
0007
FFFA
0013
0009
FFEB
000F
000C
0000
FF7B
FFBE
0008
FFD2
000F
002D
001C
001A
0009
001E
FFF2
FFD5
001A
0017
FFF4
0009
0029
000F
0013
0017
0019
FFF7
002A
FFF0
0041
FFFE
0012
0010
0037
FFE8
0004
FFFC
0022
FFC4
FFD2
FFC6
0006
FFEA
000B
0018
0020
FFFB
0026
002C
000F
0004
0023
0019
FFDF
FFE8
FFE7
0012
FFB3
FFCC
FFF3
000B
0019
0019
FFEF
FFF0
FF50
FFA5
FFCC
0009
FFF3
0006
0003
FFE9
FFA7
FFC9
0021
0015
FFE9
FFEE
0001
0012
0005
0000
FFFC
0000
001C
0010
FFD3
0001
0015
FFC2
0005
0012
FFEB
FFC1
000F
FFED
FFF0
FFEB
FFDC
0002
0004
000B
FFE8
FFF5
0004
FFF5
FFEC
0016
FFC6
FFEE
FFFC
FFF3
FFD4
FFFA
FFFA
0016
0007
0020
004C
0036
0000
FFEC
0019
FFF0
0001
0004
002B
0003
0030
FFDF
FFF0
0016
000F
FFCB
FFCD
0001
FFDF
FFED
FFEE
FFED
FFFB
0003
FFCD
FFDF
FFF4
001F
000C
0028
0022
0019
FFFC
0027
FFCD
FFD5
0020
003D
FFD4
FFED
FFE3
FFF9
0034
002A
0003
FFE6
0012
0037
001B
FFDE
0013
003C
0029
001B
0036
0014
000A
0012
004A
0000
0024
FFDA
0008
FFE8
FFC4
FFF3
0015
FFF2
FFC7
000D
0000
0036
0027
002D
FFD2
0010
0011
0007
FFB3
FFF8
0012
FFFC
FFF7
FFED
FFC9
FFF5
FFBF
FFE1
FFF8
0004
FFEC
000A
0029
0012
FFF2
000F
000E
002F
0009
0033
003E
FFF0
000B
0009
0018
FF99
FFF1
000E
0006
002E
0001
FFF3
0001
FFFE
FFF8
001B
002E
FFE0
0001
0004
0009
FFA6
0012
0022
000B
FFD1
002B
000C
FFF2
0014
FFEF
000A
FFD2
FFE9
0002
001B
0004
FFD3
FF9C
FFBE
FFE8
000A
FFFF
0023
001E
0033
FFEF
FFF9
FFF8
FFF4
0008
0000
FFF2
000D
FFF8
0009
FFFB
FFFA
0002
FFFB
0004
FFF5
0000
0001
000A
FFFB
FFF5
0006
0006
FFF1
FFFB
0000
0001
0001
0006
FFF4
000E
0008
FFFF
FFF4
FFF8
FFF3
FFF5
0001
0006
0007
FFF1
FFEE
0001
FFF8
FFF9
0003
0001
FFFE
FFF8
FFF0
0002
0004
FFF7
FFF7
FFF5
FFFA
FFFD
FFF7
FFF2
FFEE
FFF7
0003
0009
FFF5
FFF9
FFF1
0007
0008
FFF4
FFFB
0003
FFF5
FFF6
0009
FFF7
0007
FFF8
FFFA
FFF6
FFFC
FFF5
FFFB
FFF6
0002
FFF1
0006
FFF1
0009
0008
FFFF
FFF4
FFF2
FFF6
FFF2
FFF6
FFF1
FFFA
000A
0005
FFFD
FFF3
FFFF
0005
FFF0
000A
0005
FFF1
FFF4
0011
0006
FFF8
FFEF
0005
0006
FFFB
000D
FFF1
FFF0
FFF7
0007
FFFD
FFF7
FFFF
FFFC
FFFF
FFFE
FFF8
000B
FFF5
FFF8
FFFF
FFF4
FFF1
0006
0008
FFEE
0009
FFF7
FFF6
FFF7
0003
FFFF
FFFC
FFED
0007
0008
FFFD
FFF8
FFFF
000A
FFF1
0003
0006
FFED
FFEF
FFF2
0008
000F
0002
0005
FFF1
FFF2
FFF4
FFF8
FFF2
FFF7
FFF7
FFFF
FFF1
FFF5
FFFD
FFF5
FFF0
FFF0
FFFC
FFFD
FFF9
FFF1
FFFE
FFF9
FFFE
FFFF
FFEE
FFFE
FFFD
FFF5
FFF1
FFF7
0002
0009
0000
FFEF
FFFE
FFFC
FFF0
0005
FFF6
000F
FFF9
FFF0
0006
0000
FFF8
0009
FFF4
000B
FFFA
FFFB
FFF7
FFF9
0002
FFF7
FFF4
FFFB
FFEC
FFED
FFEC
0001
FFEF
0004
0001
FFED
FFF2
FFF3
FFFB
FFF7
FFFC
000A
0008
FFEC
0009
FFF3
FFF6
FFF6
0001
FFF5
000A
FFF0
FFF7
FFFC
FFF9
FFFA
FFFC
FFFD
0010
0003
FFFA
0008
0006
FFFB
FFFB
FFFC
0013
FFFF
FFEF
0004
FFFA
0007
FFFB
FFEE
0006
FFEE
000A
0000
FFF1
FFEE
0003
FFF2
0001
FFFD
FFF0
0000
FFED
FFF9
FFF7
000A
0000
FFEE
0000
0005
FFED
0000
0002
FFFB
FFF8
0001
0008
FFFB
FFFB
FFFD
FFED
FFF6
FFFA
FFFF
FFFE
FFFA
FFEE
0004
FFFD
FFFE
FFF5
FFFB
FFFB
FFFF
FFFF
FFF3
0007
FFF1
0006
FFFE
0006
FFF3
FFFB
FFF0
FFF2
0002
0007
FFF4
FFFB
FFF1
FFE6
FFE1
FFF2
FFF2
FFFB
FFF7
FFF3
FFEC
FFFB
FFFC
0005
FFF5
0000
FFF5
FFEC
FFF4
FFF9
FFFA
0005
0014
0002
FFEF
FFF7
0005
FFF2
0001
FFE9
FFFD
000B
FFEF
FFF4
FFFE
0009
FFFF
FFF7
FFF5
FFF9
FFE7
FFF6
0002
FFEB
FFEF
FFFA
FFF1
FFEF
FFF5
FFF7
FFF7
FFF0
FFFD
FFF6
FFF8
FFF4
FFF8
FFF2
FFFA
FFFF
FFFA
FFF3
FFF2
FFF7
0005
FFEB
FFE1
FFE9
000B
FFEA
FFFF
FFF7
0005
FFF7
FFEA
FFEE
FFED
FFF0
FFF0
FFF0
FFF2
FFEC
FFF8
FFF2
000D
FFFF
FFF5
FFE4
FFFE
FFEB
0000
FFEC
FFF9
FFEE
000B
FFE7
FFF6
0002
FFEA
FFE5
FFEE
FFF2
FFEC
FFF1
0003
FFF9
FFF3
FFE9
0002
0002
FFFE
0000
FFEF
FFF4
FFEC
FFEA
FFF1
0000
FFFC
FFF8
FFEE
0005
000C
FFFC
FFF3
FFF1
0009
FFE7
FFF3
0005
0007
FFEF
FFE7
FFF5
0006
FFFA
FFF3
FFEB
FFEF
FFEE
FFF8
FFFA
FFF7
FFEE
FFF0
FFEB
0003
FFF6
FFF5
FFDD
FFFB
FFF9
FFEC
FFF4
FFFD
FFE8
FFF4
FFF0
FFE6
FFF4
0008
0008
0000
FFF6
FFF8
FFF0
FFF8
0001
FFF2
FFE9
FFED
FFEE
FFEB
FFF8
FFEC
FFEC
FFE9
0001
FFF5
FFEF
FFFA
FFF2
000B
FFFB
FFE2
FFFE
FFFB
FFF9
FFE9
FFF9
FFFA
FFF5
FFF6
FFF0
FFF0
FFFF
0008
0007
FFE3
FFE4
FFE5
FFE4
FFFA
FFEE
FFF0
0000
FFF2
FFEF
0005
FFEE
0005
FFFF
FFEA
FFF9
FFEA
FFFB
FFF2
FFFC
FFE8
FFF2
FFFA
FFF5
FFFE
0000
FFF7
FFF0
FFF7
0001
FFF5
FFEA
FFEC
FFFB
FFE9
FFF5
FFF1
FFF7
FFEF
FFFA
FFF1
FFFF
FFEF
FFF3
FFFC
FFF1
FFF0
FFE6
FFEC
FFF8
FFFA
0005
0000
FFFC
0002
0009
FFF3
FFEE
FFED
FFE9
FFE5
0006
FFF9
FFF8
FFF3
FFE5
FFF6
FFF4
FFF6
FFDD
FFF5
0006
0004
FFF1
FFF5
FFED
FFF0
FFF7
0005
FFF6
FFF8
FFF9
FFF3
FFFE
FFF6
0000
FFF0
FFF7
FFF0
FFEC
FFFF
FFEB
FFF1
FFF4
0000
FFF8
FFEA
FFFB
0000
FFF9
FFEE
FFEE
FFF5
FFEB
FFFF
FFE9
FFF6
FFFD
FFE4
FFED
000A
FFFC
0002
FFEE
FFF0
0001
FFEE
FFEC
FFF0
0004
FFF6
FFF4
FFF6
FFFD
FFEC
000C
FFE7
FFFF
0008
0013
002D
0049
FFF5
FFFD
0002
000B
0021
FFFB
001D
FFF5
FFD9
FFE1
FFFB
000A
0046
0017
FFFF
FFE3
0038
0043
001B
001D
FFF9
0026
0026
FFE1
0014
FFD8
FFE2
0002
0009
000E
FFF7
FFEF
FFBF
0006
0016
FFFE
000D
FFEC
0024
000C
0017
FFEB
FFE5
FFE0
FFE8
FFFF
0010
0020
0034
0021
0006
FFDB
0009
FFF2
FFED
0014
0033
0026
FFDA
000B
FFF2
FFE6
FFE1
001C
FFCA
FFF9
FFF7
0023
FFC3
0037
0032
FFDC
000F
FFE4
FFF7
FFF7
0019
FFC7
0009
000B
0011
FFD9
0019
FFEF
001A
FFB9
FFFF
FFC8
0002
FFF7
FFDE
FFD8
FFEE
002F
FFFF
FFE6
0018
0003
000C
0027
0034
0019
0024
002E
000B
0015
FFFF
FFDB
FFCD
0004
FFF4
FFD2
0032
002E
0025
FFFF
0001
0000
000D
0011
FFEA
003F
0001
FFB9
FFB2
0030
FFF2
FFDE
FFF6
0009
FFD8
0008
0017
FFF7
FFC8
FFFC
0022
003E
0038
0017
003A
001F
0027
FFF3
FFDC
0004
001B
FFE8
FFE9
001D
FFF7
0008
0001
0018
FFEC
FFD3
0006
0013
0016
FFEF
FFF3
FFEB
0037
FFF8
001F
0008
0016
003C
0012
002D
0046
0002
FFCF
0020
0023
001B
FFF6
0007
002C
FFEA
0002
FFFA
0003
FFDE
0039
FFD2
FFF1
0002
0026
001A
000E
FFF5
0046
000E
FFFE
0013
FFF3
000E
000D
0024
FFE4
0011
0006
FFE8
FFDE
FFE4
FFE9
0002
FFFA
FFF5
FFEB
FFF9
FFFE
0008
FFEC
FFF9
003D
0002
000B
003B
001E
FFF9
000B
0022
FFF3
FFE5
001B
FFF6
0010
FFEF
FFF0
0026
FFFE
FFD4
FFF6
0008
0007
FFEF
FFF7
0015
0005
0036
FFF5
FFF6
0022
000C
FFF7
0012
0024
FFD4
FFDD
0009
FFFB
001D
FFED
FFDE
0005
FFFB
000D
0013
FFFF
000E
0005
001E
0004
FFF1
0001
0006
0020
FFEA
FFFC
0038
FFD8
000A
001A
0003
FFCD
0029
002E
000F
FFF4
FFFA
0000
0007
0023
FFF5
FFDF
FFFE
0025
FFFA
0012
000B
FFE2
FFF1
0004
FFED
FFFB
FFEA
FFE6
0008
001C
0024
FFF3
0000
0003
0040
001E
FFEA
FFEB
0031
0018
0032
000A
000F
FFF9
FFEA
FFC8
0023
FFEA
0001
FFF5
0012
FFF2
001A
FFD0
0016
0000
001E
FFFA
0020
FF8F
FFE5
FFEA
FFED
FF6E
FFE5
FFA4
FFE9
0010
FFF3
002A
0017
0031
004C
0012
000A
FFE6
FFFE
FFDA
FFEA
FFF5
FFFC
0004
FFED
0002
0004
FFDB
0002
FFFA
0011
FFDD
FFFD
0014
FFF1
0019
FFF8
0001
FFEA
0009
FFD7
FFED
FFC0
000D
0021
0010
002E
000D
000B
FFFE
FFC8
FFE1
000A
FFEC
0011
0009
FFF6
0000
001A
FFF5
001C
FFE3
000B
FF8D
FFE2
0033
0011
000B
FFB9
FFEE
0005
000A
FFC1
FFF1
0023
FFDC
0038
0031
0023
FFCB
000F
FFF6
FFF7
0011
FFDF
0003
0022
FFD7
0030
000B
FFEB
FFE0
0062
004B
FFEA
FFE5
003F
FFBD
FFD0
FFE3
001B
0028
FFCA
FFD2
0036
003C
0009
FFD3
FFFA
0008
0012
001C
003B
004C
000B
FFDD
0019
0005
001E
FF9F
0004
FFDC
001B
FFA4
0026
FFFE
001D
0003
FFF2
001C
FFF9
001D
0033
0015
001C
0008
001E
FFF3
002D
FFFC
FFD6
FFFA
001B
FFDD
0022
FFFB
000E
000F
0032
0024
0013
0017
0034
0004
0007
FFE7
FFCD
FFF7
000D
001C
0026
0021
0035
FFF0
0008
0010
0007
FFE4
FFFC
FFFA
003E
FFF3
FFF5
0006
000D
FFA6
FFF7
FFBE
FFF4
0018
FFFF
FFE4
000B
0011
0002
FFCF
FFF6
0006
0014
0017
0026
0037
004C
0033
000E
FFBA
0005
0015
0059
FFF5
0001
0003
0016
FFF3
FFF4
FFED
FFE9
FFDC
0015
FFF1
0002
0019
FFF9
FFA8
0008
0027
FFE8
0003
FFAB
0011
0027
0012
000B
FFFE
FFE0
FFE6
0001
FFF5
FFBD
FFC0
FFDA
000C
FFB0
FFB7
FFF7
FFF2
001B
002E
0032
002B
FFC7
0012
FFFA
FFF7
FFF0
001B
0016
0010
FFDA
0017
FFE4
0013
FFFC
FFE6
FFDD
0042
0012
0015
FFF8
FFDB
001B
0004
000D
0029
FFF2
0012
000D
0031
000A
0004
000A
FFB7
000B
0010
FFE7
FFF8
002E
0012
0019
0013
FFF8
0005
FFEC
0002
FFE8
FFF9
0018
FFD6
FFE8
FFC1
FFE1
FFD3
FFC6
FFE0
FFEE
0025
0012
001D
0014
003E
FFCD
FFF5
0000
003F
FFDD
0025
0003
0002
FFE7
FFDE
000E
0011
0018
FFE6
0020
FFAA
001B
0015
0017
0018
000A
FFD6
0032
FFAB
FFEF
FFF3
001C
FFDE
FFD4
FFFD
0049
FFFF
0009
001A
FFC2
FFE3
0005
001E
000A
FFFC
FFDC
0024
0034
FFCE
003B
FFF5
FFC3
FFE8
FFD3
FFDD
000B
000C
FFC7
0026
0023
FFCA
000A
FFFC
FFD7
FFE2
FFD9
001D
FFDF
FFDE
0028
FFED
000E
0028
FFE8
0028
001B
0018
0027
0025
001B
0036
FFF9
FFED
001B
FFE2
000C
000D
FFE4
FFC9
FFBB
FFF7
0016
001C
000B
0002
0012
001A
0040
FFE3
0014
0001
002A
FFFA
0025
0011
FFF4
FFC1
FFFD
0030
FFDD
001A
FFAC
FFD2
0003
FFCB
FFC2
FFDE
001A
0014
FFF0
0012
FF84
0006
0031
FFEA
FFB9
FFFC
0011
0004
FFB9
FFCA
FFFA
FFC9
FFF7
FFF8
FFF4
FFE1
FFD9
FFD7
0032
0036
FFEC
FFD2
FFEE
FFB0
001C
FFFF
FFEC
FF8D
000F
FFF2
FFD4
FFB2
FFCD
FFB1
FFF0
001A
FFAA
FFC6
0007
FFFC
FFED
FFE8
001A
0006
001C
FFD6
FFDE
FFFE
FFC2
0004
FFFA
FFC8
FFE3
FFEB
FFF6
001F
FFEE
FFD3
FFD2
FFAD
FFFD
FFDB
FFE3
FFDA
FFEA
0006
0010
FFFB
FFFC
0011
FFEF
0006
001C
001A
000A
001C
0003
001E
000E
0021
FFE9
0035
001A
FFF6
FFBE
FFD8
0021
FFF6
0019
0002
FFB9
FFDA
0003
0005
FFE2
FFFE
FFCC
FFEF
0038
000B
0019
FFDF
000A
001B
FFFF
FFE9
FFEB
FFC9
0017
000E
000C
FFD4
FFEA
0009
FFD5
FFED
0024
002F
FFE0
001F
0015
FFF1
0011
004F
FFEE
FFD3
FFF6
0003
FFF3
000B
FFF5
000B
FFF9
0000
FFF0
FF9E
0012
FFE4
FFD8
FFB8
FFEC
FFD5
FFDE
001A
0029
FFF5
0012
FFF8
FFBC
FFFE
FFF6
FFF5
002B
FFEE
FFCD
0008
0028
0007
0009
0025
FFE9
0012
0008
FFF9
0018
001A
FFFF
FFFD
0018
0008
001B
FFC5
FFF9
0008
0029
FFE8
000C
000B
0032
001E
FFEE
0004
FFF7
0020
0000
FFDF
0029
0004
0013
FFF5
FFF5
FFE6
FFF8
0016
FFAA
FFF4
FFEA
0012
FFEF
002C
FFEB
FFF0
FFE6
FFC3
000B
FFF1
FFD5
FFC5
FFE6
FFEC
FFDE
0037
0018
FFFA
FFEE
0012
001B
0000
001C
0012
000D
FFF5
FFFF
FFE5
0025
0017
0008
FFED
0008
FFE7
FFE3
0006
FFD1
FFD7
FFDF
0028
FFF7
FFFC
004E
0057
FFF9
FFFC
FFF5
0026
0035
FFF5
FFEF
FFFF
FFE8
0016
0010
0017
001E
0017
0006
0011
FFED
FFEB
FFD4
0040
000A
0013
FFFB
0009
0001
FFFE
0018
0005
FF7F
FFD3
000D
FFCE
0005
0015
002C
0017
0004
0008
FFF8
0021
0010
FFEC
0007
FFE9
FFF9
0002
001A
0020
0024
FFF6
FFF1
000E
0045
000C
FFF8
FFEB
0038
FFFF
0003
000E
FFB7
FFF1
0012
0002
0001
000C
0001
0004
0006
0007
0030
FFE7
000C
000A
0006
0004
FFCD
FFC8
0006
FFFE
FFFC
FFB6
FF8E
FFF3
FFEE
FFDB
FFE2
FFDA
FFEB
FFEA
001F
003C
0000
FFEE
FFF5
FFD2
FFFD
FFFA
FFCF
FFE9
0021
FFF7
002A
FFFD
0028
000D
0006
0009
0011
FFCD
FFF4
FFA9
005C
0010
000B
0011
0022
FFE7
FFF1
FFF7
0038
001F
0006
000E
FFF5
FFF1
001C
000E
0005
FFCB
FFEF
0028
FFDB
FFF3
0018
FFE4
FFF6
FFE8
FFC9
0019
000D
0012
003B
000A
0003
0010
002C
000E
FFED
0014
001A
FFF1
FFFC
0007
FFFF
0027
FFDD
FFF1
FFEB
0015
FFD7
FFA1
FFEC
001E
000C
0002
0027
FFF5
FFE8
0004
0025
003D
001F
FFF6
002A
0016
0019
000C
0013
0005
0002
001B
0010
0034
0012
000A
0003
FFE8
FFF3
FFFA
000F
000C
0007
FFF0
0067
0037
FFFD
001C
FFFB
FFBB
0008
0007
FFE2
FFF0
0023
FFCF
002E
0032
FFF3
FFF3
FFD3
FFF5
FFDE
0004
0016
0005
0001
FFFE
0018
000E
FFFC
0013
002D
FFE1
FFE9
FFEF
FFF2
0000
0008
FFFD
0001
0005
000E
0012
0019
FFF2
0020
0020
0015
0007
FFDE
000D
0012
0073
FFEF
FFDE
0013
001C
FFF4
0010
0011
FFF4
FFEA
0014
0005
000D
FFEE
0016
0003
0037
0006
FFFB
000F
0020
0009
FFF0
0008
FFDF
FFFD
0016
001C
000E
000D
FFEE
FFAA
FFCF
FFBA
FFEA
0009
FFFE
FFE6
FFF0
000C
0011
0015
002F
002A
002D
0001
FFD8
FFE4
0029
FFF7
0034
FFD6
FFD7
FFDC
FFFE
FFDD
FFCC
FFEF
004D
FFF0
0021
000A
FFE0
0000
0021
0031
0003
0013
0010
FFEB
FFF4
FFE0
FFF7
0027
0012
001D
FFBF
0041
FFF7
FFEE
0000
0009
0006
FFBC
FFE2
FFC8
FFFA
FFFA
0017
002E
001C
FFFF
FFCD
FFE7
0003
FFFF
FFE7
000C
000B
002E
FFF4
0013
FFD7
FFF4
FFF0
0001
001F
FFF0
FFF9
000D
000A
FFDB
FFFB
0013
FFFF
FFFC
FFE1
FFE5
0004
FFDB
FFF9
FFC4
000C
FFE9
FFF8
FFB9
0010
000C
FF97
FFAF
0032
001B
FFAA
FF8A
0016
000F
FFAD
FFC3
0027
0029
FFDE
FFF3
FFFD
0001
FFD3
FFF1
0047
FFF3
FFDD
FFDC
001B
0018
000E
000A
000A
0024
FFF4
FFBC
FFC7
FFFC
0028
001C
0039
002D
0061
FFE7
FFE6
FFB8
FFEB
0024
0036
FFEE
FFA2
FFFC
0013
0011
FF99
FFE8
0024
FFFE
FFCB
0011
0029
0023
001F
FFF5
0025
001E
FFF4
FFCA
0035
0020
FFBD
FFD2
000F
0030
FF97
0028
FFF9
0019
FF8D
003C
000C
0014
FFD9
FFF6
0019
FFFD
0020
001A
001C
FFD9
003B
0015
FFF4
0039
005F
0016
0022
0029
0010
FFFF
0015
FFFE
FFFB
FFEB
FFFA
0016
FFB4
FFF9
0018
FFF8
FFF7
0004
0006
0008
FFF1
FFBB
FFF5
0006
0029
FFF2
FFFF
FFE8
0062
0000
FFC2
FFFE
FFBB
000F
0022
FFE5
FFEB
FFCA
002D
FFC3
0032
000A
FFF8
0005
FFAE
002A
0048
0011
FFDF
FFE4
0003
0006
FFBC
0013
0015
0034
FFF3
0039
001F
FF9D
FFF2
FFC4
0067
001B
000D
FFE7
FFFD
0023
FFEF
FFB5
0009
0007
0013
002D
003E
002D
FFEE
FFCD
FFCB
FFF2
0006
0010
FFF0
0027
0010
FFE7
FFF7
0015
002C
FFF4
FFCB
FFD4
001D
0012
FFE9
000B
FFD1
0051
0013
FFF3
FFF3
FFF1
0032
FFF4
0043
000A
0008
000B
FFE8
0005
0006
FFD1
FFD5
FFC9
000D
FFF3
FFCC
FF9C
FFEA
FFED
FFB7
0009
0030
FFFD
FFDB
0004
002A
FFFC
FFBD
FFD0
FFEE
FFE7
FF91
FFFB
FFDB
0000
002A
FFF1
001B
FFEF
004B
0017
FFF9
FFCC
FFFD
0003
0003
FFEE
FFD6
FFE3
FFF1
0012
0012
0006
0005
000A
0046
0021
0016
004B
004B
FFF3
FFC5
001E
002C
FFF4
001D
0015
FFE6
000C
FFFE
FFE8
FFC4
FFE8
FFC2
FFF1
FFC9
FFFE
0020
002D
0001
0007
0017
0009
FF8C
FFFE
FFE9
FFBD
000A
FFF4
FFDD
FFF1
0012
FFFD
0013
0017
0006
0003
FFD2
FFEA
FFF7
001F
0039
FFFE
FFFA
0032
000C
000B
0008
FFB8
FFB5
FFF5
FFB7
FFEC
0008
0007
003F
FFE0
000C
FFBA
FFFC
FFEA
FFF0
FFEE
0026
0018
FFE6
0048
0013
FFF6
0012
FFE7
FFF2
FFF4
000A
FFEB
0016
0034
FFD1
FFF8
001D
0023
FFCD
003E
003E
0026
FFF5
FFDE
FFD5
0025
0000
0052
FFEB
FFE3
0025
002B
FFFD
005E
0012
FFF9
FFD6
0009
000E
0002
0014
FFAD
FFBA
0024
FFE9
FFEE
000C
0007
FFEC
0011
0013
0042
0004
FFF6
FFE2
FFFE
001D
FFF3
FFE2
FFEE
0022
0020
FFE2
0026
0016
000F
FFFB
0010
FFF7
FFE3
002E
003B
002E
FFE4
FFFE
FFFA
0037
FFF9
0001
FFD4
0010
FFE7
FFFB
000D
FFF4
FFD2
001D
0016
FFF1
FFEF
FFDD
FFF3
000F
000A
000B
0014
FFCA
0006
0009
FFFF
000E
0005
0011
0019
000B
0005
0002
0035
FFED
001E
FFC1
0031
0023
000B
FFFA
003F
005B
FFCB
FFEB
FFC1
0017
0034
FFE0
FFB8
FFC4
0030
0018
0017
0004
FFF8
0002
FFDA
FFF3
000F
FFD7
0011
0002
FFEF
FFE0
FFFF
0023
0011
FFFB
FFD6
0019
0016
0002
FFF6
0002
FFF8
002C
FFF3
001B
002E
0012
0002
FFF2
0042
FFDD
001D
FFCF
FFC6
FFD0
0026
002D
FFDB
FFEF
FFEB
FFC2
0030
002F
000E
000B
FFED
001E
0015
0039
FFD5
0009
0004
FFF0
FFA0
FFFA
FFBE
FFFF
0015
FFE9
FFFC
FFF0
000F
0024
0006
FFEC
0003
001E
FFDB
FFFF
FFE8
FFF7
FFF7
002A
FFDC
0014
0001
FFFE
FFF5
0013
FFFE
0032
000E
FFD4
0048
0011
FFDF
FFF8
FFFC
0012
FFFE
FFFC
0000
FFC5
0015
002F
FFCD
FFF0
002E
FFEC
0006
0021
0014
0010
0009
FFFF
FFE8
0009
FF9B
FFD6
000C
000A
0006
0010
001E
000E
FFF9
FFD9
0043
000B
001B
FFFE
000B
0035
0007
FFF8
FFDE
0001
001A
FFE3
0003
0022
FFF2
0016
FFE8
0001
FFC0
001E
FF94
FF9E
FFAD
000E
0000
0028
003D
003A
0043
FFFE
FFFA
FFF6
FFF8
FFD1
FFE0
FFC5
FFEF
0012
001B
0004
0031
000F
FFFE
000B
0006
000A
000D
FFF0
000E
000B
FFFF
0006
0014
0011
FFFB
0006
FFFA
0011
0006
000B
FFF9
FFED
FFF1
FFE7
FFFE
0001
0016
FFD9
FFE4
FFD5
0007
FFD5
FFCE
000C
002D
FFFA
0002
002D
FFED
FFFB
0033
FFDE
FFCB
FFDD
FFA4
0010
0023
000E
FFCB
002F
FFF6
FFF1
0006
003F
FFF4
FFE6
FFE2
FFDA
FFF3
FFF0
0023
0029
0003
0013
0032
001C
001A
FFEE
0012
FFFA
000B
0006
FFB3
FFC7
FFE4
FFF8
0005
0010
FFF3
0013
0048
0044
001B
0015
0008
FFCB
FFE1
FFD4
001E
000A
FFF7
FFE6
002C
002D
0006
002C
0024
FFFF
FFF6
FFF5
FFE0
FFFF
FFD5
000A
FFCC
FFF7
FFB7
0024
000E
FFF1
0004
FFDB
000D
0012
0019
FFD9
0011
FFFC
FFFA
FFF5
FFD6
FFDA
FFAF
FFE0
0024
0000
0003
001C
0000
FFFE
000B
0006
FFFF
FFFD
FFE6
0007
0005
002E
001C
FFB1
0007
0014
000E
FFD6
FFDE
0017
FFE3
0037
0012
001C
FFCB
FFFD
FFF2
0014
FFFC
0004
FFE8
FFCE
FFD1
FFFB
001A
0024
0004
FFFB
FFF6
0007
0010
FFF2
0028
0022
0014
000D
0022
FFD1
FFFF
FFF3
FFE4
FFC0
FFDF
0022
0013
FFF6
FFFA
FFFF
002F
0049
FFCA
FFE1
FFEF
FFE5
FFC2
FFE3
000C
004B
0018
0008
FFE0
FFF2
002E
FFF1
0016
001E
FFF5
0006
FFEA
0009
0009
0003
0046
0020
FFFD
FFFA
0001
0015
FFF7
0011
FFED
0004
001D
0002
003E
0015
FFFF
0000
FFE5
FFD2
FFEF
FFD8
FFFD
000F
FFEE
0004
000C
0006
FFFD
FFD5
FFEF
FFE1
0017
FFE2
FFEE
FFF2
0015
0003
0038
0031
001D
FFED
002C
0000
0039
0017
0015
FFF4
FFF8
FFC6
FFD5
FFEB
FFF8
FFED
FFF8
0025
000E
FFFA
FFC2
0000
000E
003D
0013
0005
0023
FFF9
002D
0008
001E
0019
FFF9
FFF3
0006
FFE8
0004
0012
0010
FFAC
0020
FFEE
0001
FFFD
002A
0017
002A
FFE2
FFA7
0011
0042
000E
0031
0004
0024
0001
0001
001A
0016
FFEC
FFDB
FFF5
0007
0000
FFF2
000E
0006
FFD0
0013
0019
0025
FFF1
FFD2
0004
0022
000F
000C
FFFF
FFF7
FFF3
FFD7
FFA7
FFA5
FFA3
FFFA
001E
0024
000F
FFFB
FFF9
FFE0
0036
FFD3
FFDF
0012
0013
002E
0001
FFC7
FFA8
0017
FFFA
FFFC
FFFC
0007
0001
0032
FFF8
0001
FFE0
001A
FFFA
FFEF
FFFD
002F
FFFC
0003
000C
000C
000E
000D
FFE4
0002
FFF9
0007
FFEE
0017
FFF6
0027
003C
0026
FFFF
0011
0004
0000
0011
FFE6
FFF9
FFE4
0000
0020
0001
FFDB
0003
0010
FFC4
FF74
FFD8
000D
FFD8
FFE5
FFF6
FFDF
FFDC
FFED
FFD7
0001
001A
FFFF
FF86
0027
001A
0005
FFF5
000E
FFFD
FFFC
FFD9
FFF4
FFE9
0007
FFD7
FFD8
FFAB
0012
FFF9
0018
003C
0001
001C
FFFF
FFC9
FFC8
FFF5
0000
0004
FFFE
FFFB
0022
FFCE
0018
001F
002B
FFFC
FFF3
FFC8
0007
FFF1
FFE4
FFD5
0013
0010
FFFA
FFC9
000F
FFEF
001C
FFF3
0006
FFC8
FFD2
FFD2
FFEC
001C
002E
FFE9
FFF1
0010
0006
FFD8
FFEE
0012
000D
0024
FFC2
001C
003E
000E
003F
0008
0014
000D
FFEA
FFEE
FFDB
0008
0009
FFF2
FFE9
0010
002D
FFCC
FFD8
FFEC
0012
FFF9
FFE0
FFE7
0001
0007
0020
0006
FFF9
FFC2
0015
0026
FFCE
FFF4
0034
000E
002A
000E
FFFD
002E
001F
0025
0024
003B
0029
0030
0003
0022
FFF1
FFFC
FFF4
FFDF
001D
FFFE
000F
FFF9
FFD6
FFDA
FFE7
0018
FFE2
FFEF
FFEE
0008
000F
0014
FFDD
FFBF
FFF5
FFFA
0003
FFE0
FFE7
0011
0020
000C
000D
002B
0009
FFE5
000B
FFC3
FFDD
0038
0014
0009
FFF9
FFE6
001E
0023
001E
0011
0003
0010
0008
FFD4
000B
FFDE
FFF2
FFD7
003B
FFF2
0012
FFE5
000B
0012
0029
0023
FFFF
FFFD
FFE7
0022
FFED
FFB3
0017
000C
0018
0022
0008
000F
FFE0
000D
000B
FFD8
0001
FFFC
002F
FFFF
002A
001C
FFFD
FFDF
0008
0009
FFFC
0008
FFF5
0002
0006
000A
FFF8
FFFF
FFF9
FFF4
0002
0000
FFF4
0000
0000
FFF2
FFF9
FFFA
FFF8
0007
FFF4
000A
0004
FFFD
FFFA
FFF2
0009
0000
FFF8
FFF6
0008
FFF5
FFFC
0002
FFFA
FFF7
FFFC
FFFF
FFF8
0009
FFF9
000B
0005
FFF6
0004
FFEF
FFFC
FFFD
FFF6
FFF6
000C
FFFB
FFFD
0001
FFF6
FFF5
FFF7
FFF4
0003
0000
000B
FFF6
FFFC
FFFF
FFFC
0004
000B
FFF3
0007
FFFD
FFF6
0009
0005
FFFE
FFF5
FFF4
FFF9
FFF9
FFF7
FFF1
FFFC
FFFC
0001
FFF1
0000
0006
0003
FFF5
0006
0005
FFF5
FFF4
FFF8
FFF6
FFFF
0008
FFF8
000B
0004
FFFE
FFF8
0007
FFFE
FFF8
FFF7
FFFE
FFF6
0001
0001
FFF1
FFFB
0002
0009
FFFE
FFF6
0001
FFF2
FFFA
0006
FFEF
0005
0002
000A
FFF1
0006
FFFF
FFFA
0007
FFFE
FFF8
FFF7
FFFC
0007
FFF4
FFF3
FFFF
000A
FFF9
FFF5
000D
FFF2
0006
FFFB
0002
0005
FFF2
FFF4
FFF2
FFF2
0003
FFFF
0005
000B
FFFC
FFFC
FFF0
FFFA
FFF8
FFFD
0005
FFF3
0003
0002
0007
0004
000B
FFF9
0000
000A
FFF4
FFFB
0008
000B
FFFD
0001
FFF2
0007
000B
000A
0001
0006
FFF3
FFF3
FFF5
FFFE
0000
FFF6
0000
0006
0001
0009
FFFA
FFF4
FFFA
FFFA
FFF6
FFF9
FFFB
0002
FFFA
FFF9
0005
0007
000D
FFFA
FFF8
FFFF
FFFC
FFF2
0004
FFFE
FFF3
0000
FFFB
0007
000C
FFF7
000A
000A
FFF7
000C
0002
0005
0009
0005
FFF8
FFF8
0003
FFFB
FFF8
FFFB
FFF9
0006
FFF8
FFFE
FFFE
000A
FFF5
0001
000A
0008
FFF2
FFFD
0007
0006
FFF4
FFF9
000D
FFFD
0004
0005
FFFA
FFFB
FFF6
FFF3
0005
FFF9
0001
FFF3
0003
FFF9
0007
FFF6
FFF1
FFF5
000B
FFFA
0008
0001
0008
0007
0001
0006
0004
0002
FFF7
FFFB
FFFD
FFFA
FFF7
FFFF
0002
FFF7
FFFE
FFF2
0006
FFF6
FFFF
FFF6
FFFB
FFFF
0006
FFF6
0000
0001
FFFB
0002
FFFA
0009
000B
000B
FFF3
0006
0006
FFF6
0002
FFFF
0005
FFF1
FFF7
FFF0
FFFF
0004
0008
FFF5
FFF7
FFFF
FFF3
FFE1
FFFF
FFEB
0012
0008
0003
FFF0
FFE8
FFF8
002A
0016
000E
FFAE
FFEB
FFEF
FF9F
FFEB
0013
0002
003B
0034
002C
FFF3
FFE0
000C
000D
FFF5
000B
0011
0013
FFF9
FFFF
0008
0013
FFDE
001C
FFF6
0012
0014
FFDF
FFFA
FFF0
FFE1
FFE7
FFDE
0004
0022
FFE2
FFE0
FFF6
FFC5
FFF3
FFEA
0002
FFF2
0017
0020
0007
0016
0012
004B
FFF5
FFBD
FFA5
FFF4
0009
001A
002C
0009
0005
0024
0025
0010
FFDB
FFF7
FFE9
FFC1
FFD6
FFF9
FFEA
000C
000E
0013
001C
002C
0021
FFE7
0011
FFF3
FFE0
FFEF
000B
FFAB
001A
001D
002C
FFF6
FFFB
0005
0004
FFFE
FFCB
FFF5
0006
FFFD
FFC5
FFFA
000B
FFF9
FFD0
0002
FFF9
FFFD
0007
FFEC
FFCF
0019
FFFF
FFF5
FFEB
FFF6
FFF0
FFFD
0000
000F
0024
000A
FFFD
0046
0001
FFF3
FFE6
0018
FFF2
FFE3
FFE3
FFD6
FFE0
0016
FFF9
FFF4
000F
0042
001D
0024
0007
001A
0021
0018
0005
0005
0019
FFE1
FFF7
001B
0004
FFF6
FFFE
0010
0012
001D
FFE4
FFED
FFED
0006
FFCF
FFD4
FFD8
000A
FFF6
FFF4
FFEF
FFFA
FFFA
FFEC
FFEA
FFEF
0020
0015
002C
0004
003D
000E
0014
FFF4
002D
FFE7
FFF7
FFC9
FFFA
FFF2
0006
0015
FFEE
FFEA
FFFF
FFFF
0003
001A
0004
FFE6
FFF7
FFFE
FFE8
FFF3
FFFD
0008
FFDC
FFF7
000E
FFE6
FFED
0013
0011
0018
000E
FFF4
FFEE
0017
0001
FFD8
FFB4
FFD5
0000
FFE0
FFC3
0000
0042
0025
001D
0009
FFFE
FFC6
0018
FFEB
FFE9
FFC1
FFD6
0030
000F
000B
FFFA
0005
FFF0
FFC7
FFDB
FFDF
FFF8
FFEB
FFDE
FFE6
0017
0027
FFF0
FFF7
FFF8
002A
FFFE
FFFA
FFEA
FFEC
FFE2
FFED
0012
0011
0018
0012
FFE8
0011
FFDD
FFF1
FFCA
FFE5
0020
FFEF
0024
FFF6
0009
001C
0035
0026
000B
0020
FFFB
FFE8
FFDB
FFDC
0008
FFDD
FFE3
FFF6
003D
0002
000B
0007
004B
0012
FFF5
0027
0001
FFE6
FFEE
FFF7
FFF7
0023
0006
0027
FFDF
0005
0008
FFEF
FFFC
000A
0020
000B
000A
0029
0006
0007
FFF9
FFDA
FFE9
0003
FFF0
FFF2
FFCC
000A
FFE8
FFE9
FFEB
001A
000F
FFF8
000C
0025
FFFF
000D
FFEF
FFD5
FFE3
0018
0024
FFD9
FFF4
FFF7
0025
FFE4
FFBE
0001
FFF7
FFD8
FFB5
FFF6
FFCE
FFE5
FFEB
0009
FFEF
FFD2
FFDC
FFED
FFBF
FFC7
FFE4
0003
FFEE
000D
000D
0020
FFF4
FFD2
0006
FFBF
FFF3
000C
FFE2
FFE9
FFE0
FFB4
FFFF
FFED
FFFB
0000
001B
0000
FFE2
0009
FFD7
FFEB
FFEC
FFEF
FFCF
FFEE
FFF4
000A
FFE8
FFEC
0002
FFE3
FFE8
001C
FFD6
FFEA
FFEE
FFDF
FFED
0004
FFF4
FFC0
001E
FFF5
000A
FFE4
FFF5
FFEE
0018
FFCC
FFEE
0014
FFEB
FFF9
FFDA
0014
FFFE
FFD7
FFD8
FFD7
FFF0
FFEA
001A
FFDD
0021
000F
0017
FFEF
FFDA
0024
001B
0015
FFD2
FFEA
FFE4
0029
0010
FFD9
FFD3
FFCC
FFD8
FFD0
000D
002D
FFB7
FFFD
FFDC
001A
0016
FFFA
FFE8
0017
0012
FFE4
FFF8
0027
FFF0
000E
FFD5
FFF3
FFD0
0009
FFD3
0020
FFF3
FFFA
FFFD
0004
000A
FFBC
0017
FFF1
0039
001A
001A
FFD5
FFDF
0010
0021
0017
FFE5
FFED
FFEC
FFEB
001F
FFD0
FFB1
0003
000F
FFD4
FFF0
FFDD
0014
FFC9
000B
FFCC
0007
0004
0007
0013
FFD1
001F
000B
0042
0017
001B
FFF7
FFF3
FFD5
FFDF
FFDA
FFCA
FFFB
FFCC
FFEC
FFCD
FFEE
FFDB
FFBB
FFEC
0005
FFFC
0028
0012
FFDF
FFCB
FFE0
FFE6
FFBE
0006
FFFD
002E
FF93
0003
FFFA
FFF2
FFF6
FFE2
FFE4
FFD9
0037
FFEC
FFF7
FFEF
002D
0030
0003
FFE5
FFF7
0037
FFFB
0004
FFFF
0025
0006
000A
FFFF
FFFC
0017
0004
FFF9
FFDC
FFDB
FFBD
FFE4
FFFE
FFE9
0000
0002
001B
FFFF
0011
0011
FFFC
FFEC
FFE9
0002
FFDE
FFBF
FFC5
FFF1
FFE7
FFF9
0003
002E
0014
FFD6
FFFD
FFEE
0005
FFF9
FFED
FFE0
FFEE
FFEA
FFEB
FFD6
FFE1
FFF0
0007
001A
0016
0006
0038
FFFA
FFF6
FFAD
FFEE
FFD6
FFC4
0000
FFFC
FFD0
FFD6
FFE8
FFE4
FFF6
003B
0036
FFDB
FFCB
0007
FFE5
0005
0012
0005
FFEE
FFC8
002A
FFDC
FFD2
FFD5
FFFB
FFFC
FFF7
000B
FFFF
FFF0
0004
FFE9
0004
FFFF
FFF5
FFF8
0002
0003
FFFF
FFEC
FFEB
FFFD
FFFD
FFF7
FFFA
0010
FFFD
FFF9
FFEF
FFFE
FFEB
0004
FFF6
000B
FFEF
FFF3
FFFC
FFEF
FFFB
FFED
FFF1
0006
FFF9
FFFA
0000
FFFA
FFF9
FFF3
0003
FFFC
FFFF
FFEF
FFFD
FFFA
FFFE
FFF0
FFFE
FFF4
FFF9
FFF3
FFE9
FFF8
FFF1
FFFD
FFF6
FFFF
FFF2
FFFA
FFFB
FFFA
0002
FFED
0003
FFF7
FFFA
0007
0004
0004
FFFC
000D
0006
FFF8
0000
000B
FFED
FFF8
0008
FFFE
0004
FFF0
000B
FFF7
FFED
FFFD
FFED
FFEF
FFFE
FFFA
0000
000A
FFFC
0004
0004
000A
0007
FFFB
0005
FFF7
FFF2
FFFE
FFF3
FFED
0007
FFFC
FFFB
FFF5
FFF7
0001
FFF9
FFEB
0007
FFF9
FFF1
FFEF
0006
0001
FFEF
FFF7
FFF6
0005
FFF3
FFF3
FFF1
FFEC
FFF7
0000
FFF6
0006
FFF7
0004
FFE9
0003
0005
FFF7
0001
FFFE
0007
FFF3
FFF5
FFFD
0005
0007
FFF3
FFFF
FFF6
FFF7
FFF3
FFF4
0003
0008
FFF6
0001
FFF3
FFEE
FFFC
FFEE
FFFB
FFF8
FFEC
0002
0006
FFF1
0001
0006
FFE8
FFF6
0003
FFFB
FFF0
0005
0007
FFF2
FFF6
FFFF
0005
0009
FFE9
0001
FFF2
0005
FFFA
FFF8
FFF8
FFFF
FFF4
FFFF
FFFC
FFEC
FFFC
FFF0
FFF5
0006
0004
FFFC
0002
0000
0003
FFF4
FFF3
FFF1
0003
FFEE
FFF9
0002
FFEC
FFF7
FFF9
FFF4
FFFA
0008
0004
FFF9
FFF7
FFFB
FFF7
FFF8
0006
FFEB
FFEF
FFF8
0001
FFF3
0005
000B
FFFE
0005
FFE9
FFFA
FFE9
FFEA
000E
FFF2
FFF7
0006
0005
FFEB
0004
0007
FFFE
0008
FFEB
0002
FFED
0000
FFF7
FFEA
FFF4
FFFC
FFFA
FFF5
FFF1
FFF3
FFEE
0009
0008
0000
0009
0006
FFF8
FFF3
FFED
0001
FFF1
FFF4
FFF4
FFF2
FFFF
FFF8
0003
0009
FFF5
0001
FFFA
0003
FFF2
0009
FFED
FFF8
FFED
FFF1
0001
FFF6
FFEF
FFFE
FFF0
0008
FFF4
FFEE
0002
0000
0003
0000
000B
FFFD
0002
FFF6
0003
FFFC
FFEB
FFEB
0007
FFF2
0003
0002
FFEF
FFF2
0008
FFF2
0007
FFFA
0003
FFED
0005
0001
FFED
FFFA
0004
0011
0011
FFFA
0012
FFF0
001B
FFF7
FFE1
FFF1
0038
FFD2
FFEE
FFEA
0034
FFEB
FFE2
FFFE
FFE4
0007
000A
0035
001C
FFFD
0005
002F
000A
FFFF
0005
001E
FFF9
0002
0005
FFED
0006
FFF0
FFE1
FFF5
000A
000C
FFEF
FFEF
0013
FFF1
FFD6
0015
0001
FFFE
FFF7
FFF4
FFEE
FFF6
000D
0002
FFF8
FFEA
FFED
FFF7
FFFB
FFE2
000D
FFFD
0024
FFF9
FFDA
FFE0
0012
000D
FFE3
FFC6
FFE2
000B
FFF9
FFEF
0017
000E
0002
FFEE
0023
000F
0007
FFDE
FFE9
0021
001D
FFE3
FFEB
0020
000C
FFF5
FFFB
0017
0001
FFF9
000D
000F
0001
FFDF
FFD5
001D
0033
FFED
FFFB
FFEF
0003
0008
0012
FFF8
0009
FFED
FFF2
0015
FFF3
FFEE
FFD3
0005
0007
FFFC
0000
FFFA
FFF7
FFE6
0003
FFF9
FFEB
FFD5
FFEB
0005
FFE2
FFD8
0010
002C
0008
FFED
0029
000E
000A
FFFB
0004
FFEA
FFEB
FFEB
002C
000A
FFFB
FFEB
FFE8
0000
FFF6
FFE3
FFEB
000E
001B
FFE7
FFDE
0017
FFF1
FFED
0010
FFFB
FFF5
001B
FFFB
FFF2
FFF8
000E
FFF1
FFFB
FFE7
FFF3
FFF6
FFD7
FFE3
FFDA
FFD6
FFD9
FFF0
FFFE
FFD8
FFE0
FFD7
FFF1
0006
FFF9
FFEA
FFFF
001B
FFF5
FFEC
0018
FFE3
FFE7
FFF0
FFF5
FFE0
0018
0024
0015
FFF3
FFFE
FFE0
FFCA
FFFE
FFEF
FFF4
0006
0019
FFFF
FFD2
FFD3
000C
FFFC
FFE3
FFF6
FFFD
FFFE
FFE7
FFE7
FFE6
FFED
FFC7
FFF0
FFF5
FFFF
FFF4
FFFB
FFEF
FFDF
FFEA
FFFD
FFE5
000F
001E
003B
0001
0002
000D
002F
FFE7
0015
0007
FFEA
FFFE
001D
001F
000B
FFDC
FFF3
FFE6
FFE7
FFD4
0002
FFEB
FFD5
FFDF
0006
0008
0003
0007
0001
FFEE
FFE2
0005
0004
FFCB
FFE3
0018
FFDC
FFE7
FFFF
FFE0
FFE7
FFE1
FFE8
FFFA
FFEE
FFE8
FFF3
0000
0000
FFD9
FFE7
0003
FFED
FFEA
FFF8
001A
0030
FFD7
FFD8
FFEA
0016
FFE3
0007
FFDE
000D
000E
FFF1
0011
0006
FFF1
FFF1
0022
0006
FFE0
FFEA
FFE9
FFEB
0014
001B
0007
FFF8
FFE7
FFC0
FFE4
FFEA
FFEF
0000
0007
FFF5
0019
FFDE
0004
0013
0006
FFD9
FFE3
0039
002C
FFC6
FFCD
FFF3
0001
FFCD
FFCB
002C
FFF6
0007
FFDB
FFF3
FFA1
FFE6
0005
0010
FFD3
FFEA
0021
FFF2
FF91
FFDC
0002
0023
FFE0
FFEB
0021
000E
0009
002B
003F
003A
0013
0004
FFBC
FFF1
FFDE
FFEF
FFD2
0020
002D
001D
0012
FFF8
FFF6
0013
FFF3
FFF1
0012
0004
0009
0025
0017
FF99
FFD7
0006
0018
FFEE
FFDC
FFFA
FFFF
FFFF
FFDF
0024
FFFF
0018
000B
000E
0015
FFDE
FFD3
001D
0019
0022
FFF3
FFFC
0009
0004
FFFE
002A
0029
000E
FFF1
001F
0014
000C
0006
FFF7
FFFE
001C
0008
FFEF
FFF5
FFFF
0003
FFF4
FFAE
FFE1
FFF6
FFB3
FFDB
0006
FFF7
FFA2
FFC7
FFE6
0008
FFFA
FFC8
FFE4
FFED
002D
002F
0018
0020
FFF9
FFF9
000B
FFFA
000D
FFE5
FFC4
0008
0025
FFF4
FFE7
FFE6
FFF0
0001
000E
FFE4
0024
0009
0021
0006
FFF8
FFEB
FFDF
FFF6
0053
0008
000B
0004
001E
0027
0003
FFF5
0022
0011
FFEE
0018
FFE0
FFD8
0007
0024
0021
0000
FFEA
FFFC
0000
FFFD
FFFC
FFC9
FFF0
0002
FFEF
FFD6
0019
0020
0010
0017
0021
0036
FFE3
005D
001B
0025
FFE4
FFEF
0017
000F
FFDE
FFF3
FFD8
0004
0014
FFEE
FFFA
FFEC
003F
0009
FFF8
0010
0011
0031
0001
FFF3
0007
FFB9
001A
FFF0
FFD8
FFE7
0018
0023
FFD1
FFEF
0014
000C
0004
FFEB
0011
0036
FFF2
FFE9
003D
002A
0019
FFFF
0016
0005
0025
002C
0010
0013
FFD2
FFED
FFE0
FF99
001E
001F
000C
0006
FFF0
FFFB
FFBA
FFE4
FFF0
FFF2
0003
FFFE
FFF4
FFDB
FFEE
FFF1
FFCC
FFCB
FFDE
FFDF
0000
FFEB
FFFE
0017
0035
0016
FFDC
0000
001C
FFE2
FFE7
FFEF
FFF0
FFDA
FFEE
002A
000F
0020
FFF7
FFFC
0005
0024
0014
0009
0007
FFF7
001C
0010
FFC4
FFDE
FFF6
0014
001D
FFF6
0001
0010
FFFC
0001
0005
0001
FFF5
000A
002E
003D
000A
FFCE
FFD2
FFDF
0010
001D
FFC5
FFAC
0015
0025
FFF3
0018
0035
0019
FFEB
FFE2
0004
FFE5
0001
000B
FFFF
0010
0010
0026
FFDF
FFFE
FFEF
0016
000F
000E
FFD1
FFEA
FFFD
FFAB
FFFD
0012
FFC9
FFD2
FFEB
FFF5
FFFD
002D
FFF4
FFD6
FFEF
0017
0020
FF96
0001
0010
0011
0015
FFFA
FFDB
000B
FFE8
FFF7
0004
0007
FFF2
FFEF
000B
0023
0006
FFE5
FFCE
FFFB
000C
0012
0004
FFE3
000D
0014
FFDF
FFC8
FFF6
FFFD
FFDB
0037
000C
FFA0
FFC1
FFFC
FFCE
000C
001F
0015
FFE9
FFD1
FFF2
000D
FFF0
0008
0021
FFCD
0025
0000
FFF2
0021
FFE6
FFDD
000F
003E
FFF9
FFF8
FFED
0012
0019
000D
0000
0036
0055
002C
FFF6
0016
000A
0000
FFDE
0012
000E
0029
FFF2
FFF1
000A
FFCD
FFE8
FFCA
000E
0011
FFC5
0008
FFFB
FFFD
FFDD
002E
0000
0026
FFED
002F
0024
0030
001B
0030
0024
0027
0017
FFF3
0001
FFF7
000F
0014
FFDD
0021
0025
0005
0027
FFD6
0016
FFDB
0034
0010
FFEA
0006
FFC8
0003
FFED
0029
FFD5
000A
001B
002C
002B
002E
FFE5
FFF6
002D
FFE1
FFF1
001E
0004
FFF0
FFE2
0039
0019
000A
FFF6
0015
FFE6
0002
FFEF
FFE1
FFF4
FFE3
FFE6
FFCB
FFFA
0004
002D
0019
FFEA
FFEE
003B
FFEC
FFE7
FFBB
0031
FFFD
0013
0004
FFEA
0004
0007
FFF1
FFFB
001D
FFEE
FFFD
FFCE
FFD5
FFEE
0000
FFCF
FFEE
FFDE
FFF8
0000
FFFF
FFFA
0013
001E
0047
FFEF
FFFB
FFFB
FFE2
FFEA
FFBF
001B
FFE5
0008
FFBB
0007
0027
FFF4
FFA6
FFEB
0035
FFED
FFEF
0028
FFF8
FFDF
FFE1
FFFA
FFEF
FFE7
001F
001A
003B
0011
0012
FFF6
FFEA
0010
FFF7
FFD7
FFD6
001D
002B
FFEF
FFE0
0003
FFFE
FFEC
001E
FFF5
000D
0014
001C
0008
001F
000A
0020
0009
0008
FFED
FFE0
FFEE
FFE2
FFB4
0013
FFFA
0003
002A
001F
0003
FFF5
0019
FFFC
FFE6
FFF0
FFF8
0009
FFF7
FFFB
0016
FFF0
FFF3
000F
0038
0029
0026
FFDC
0004
0003
FFD7
FFF1
FFF0
FFE7
000A
FFEC
FFF5
001E
FFE1
FFF8
000B
0012
0005
0024
0012
001D
FFEF
000A
000C
FFDF
FFD5
FFFC
FFFC
0005
000E
0006
FFE1
FFC4
FFF4
0003
FFB4
FFE9
FFFF
000D
FFE1
0021
0005
FFE6
0022
FFFF
FFAF
FFE3
FFC6
FFFD
FFEF
0049
FFEB
0021
FFDF
0001
0002
0006
FFBC
FFAC
FFB3
0012
0030
FFEF
FFFE
000E
0013
0016
000B
003E
0014
FFEF
FFE8
0013
0008
0000
FFF5
FFED
FFFE
0005
0012
001C
0008
0023
FFD8
0027
002A
0025
FFEE
000B
FFF8
FFF5
0012
0026
FFFD
0022
000E
FFF2
000E
FFD7
0010
FFDF
FFF0
0014
0005
0031
002C
FFF8
FFEA
FFDF
FFF2
FFE7
FFFB
FFB1
0018
FFF7
FFEF
FFD3
002D
000A
FFE5
0036
0018
000F
FFFE
000F
FFE1
FFFA
FFF7
0033
003E
FFF4
FFDA
0004
0018
FFF1
FFD7
FFB1
0002
002D
0000
FFB9
FFE2
FFDE
FFFE
0019
0017
0004
0030
0002
FFD8
FFD0
0019
FFEF
FFED
FFDC
FFA9
FFEF
0023
FFFE
0004
0017
003F
0003
0021
0009
0031
FFF8
000D
FFB3
FFEC
0008
0006
FFC8
001A
000F
0004
FFE8
0027
0004
FFF3
0003
0056
000E
0000
FFF7
0010
0018
002D
001E
0000
0013
FFD1
0015
0003
0023
0008
FFFC
000D
FFE7
0024
000F
0001
0007
0039
0014
0023
FFB6
0006
0008
FFE9
0023
FFF3
0015
FFE3
FFE4
FFC4
0012
0023
0004
0017
FFFC
0035
000E
001C
FFFF
FFEE
0016
FFF7
0000
000D
0002
FFC4
0007
0001
0027
FFE8
0040
0031
000E
0000
002E
FFFC
FFE3
FFE6
FFBD
FFB4
FFD6
FFE4
003D
002D
000B
FFE7
FFFB
0026
0004
FFCE
FFD6
0003
FFDB
FFF4
0030
FFEC
FFDE
FFF7
000C
0000
0022
000E
0024
0016
0009
FFF8
FFE3
FFEC
001C
FFC4
0048
004E
0010
FFCA
0005
000E
0001
0012
004F
0020
0018
002A
FFE9
FFD1
000D
FFFA
FFFD
FFC4
FFDA
FFF7
000C
000B
0011
0032
FFE6
0004
FFE4
0026
FFFB
FFF9
FFCD
0030
FFE3
FFDB
0007
002A
0022
000D
FFF7
FFC0
000E
000A
0029
001F
FFD4
FFEE
FFCE
FFDF
FFBC
FFFC
FFFD
003E
0038
0039
0007
FFEB
FFF7
0016
0009
0044
005C
0021
FFE8
FFFE
FFD3
FFA8
FFCE
0012
FFE9
0000
FFFE
FFDF
FFE3
0008
0007
0010
FFDE
000C
002A
FFFD
0005
FFE6
002A
FFF7
0004
FFE6
000C
FFF3
FFDE
0026
FFB1
FFC2
0016
FFEF
FFEF
FFEB
FFD0
FFCE
FFF5
FFE2
FFE1
FFFA
0028
003D
001F
FFEB
FFF9
FFAE
0021
FFC4
FFC6
000F
FFB0
FFE6
0002
001E
0007
FFE5
0009
0006
0008
FFF2
FFFB
0009
FFE9
FFAD
FFBB
FFCF
FFE9
FFBE
FFD7
FFDD
FFE6
0005
FFE7
FFBB
FFDF
0002
002E
003A
0009
001E
0005
001C
FFFD
0019
FFFD
001D
FFED
FFC6
001C
001A
0011
FFF8
0013
0011
003A
0005
FFEB
FFF0
FFFF
FFEF
FFEA
0012
002E
FFF3
0001
0021
001C
000E
FFFF
0008
FFCD
FFF2
FFFF
FFD8
FFDD
FFF3
FFEA
FFC9
FFFD
FFFA
FFAD
FFB8
002A
000A
0011
000C
0018
FFEE
0003
FFFA
FFC8
0002
0009
FFFD
001B
0021
FFFF
FFF3
0003
001C
0018
001C
FFE3
0007
FFF7
0019
000B
0013
0005
0001
FFF9
000F
FFEC
FFA8
0013
FFFB
0022
FFF2
0000
0011
0024
003E
FFFB
0010
000C
0000
FFED
FFFB
FFDB
FFFB
0025
FFDF
0010
000E
FFFD
001E
001F
002E
000B
FFF4
0023
0005
0000
0014
FFE6
FFC4
FFDE
FFF2
FFFC
0022
FFDD
FFF0
0020
001C
000B
FFE2
0014
001F
0010
0003
FFF4
FFF2
0033
0017
0010
0007
0002
FFF0
0004
FFE6
FFDC
FFE7
FFEB
0008
000B
FFF4
FFF7
0043
FFF6
FFFB
0045
002C
FFFF
001E
0016
001F
0013
FFE7
FFFB
FFC1
FFE1
FFF2
FFF4
0001
FFCC
FFE5
FFD9
FFF4
0005
0022
FFE7
FFE1
FFF5
FFE2
0007
0006
FFCB
FFD8
001F
0026
003A
000E
0001
FFEF
FFE5
FFD2
FFEF
FFDF
FF9C
FFD9
FFF1
FFE5
000D
0015
0018
FFC9
0030
FFF0
FFE9
0020
FFCC
0004
FFF5
0019
0016
0013
FFF4
0000
0011
0019
0006
FFCB
0002
FFD2
0000
FFE5
FFF1
0000
0007
FFFE
0008
FFF1
FFE3
000D
FFD8
FFF1
0015
000C
FFF1
FFF2
FFE8
004B
000F
0001
001A
FFF1
0004
0005
FFD0
FFE5
FFCA
FFEA
FFEF
0017
003F
0019
0022
FFEA
FFDD
FFD7
FFCF
FFF5
FFFD
FFDE
0008
FFF0
FFF5
FFF1
001D
0005
FFF8
0008
0011
0015
FFC2
FFD2
003A
0006
FFFC
FFE0
FFC0
0026
0036
FFE4
FFBF
FFB9
0011
000D
FFEF
FFEC
0045
000B
FFFE
FFEE
0010
0007
0001
0001
FFAF
FFF4
FFE6
003E
0029
001A
0005
0018
002C
FFFF
0019
0004
FFFF
001A
FFF2
FFC8
0001
001A
0023
0022
0001
0018
FFEF
FFE2
FFFD
000B
FFF4
FFF3
0036
0004
FFF2
FFE7
0012
FFE7
0012
FFF1
FFE2
FFE6
001B
FFE8
FFE5
001C
FFFC
0016
FFFE
002F
FFFC
FFFE
001A
0007
FFED
0002
FFBC
FFF1
0030
0027
0004
FFFF
FFFB
FFFE
004F
FFF2
FFED
FFFA
FFAE
FFDC
FFFC
FFF8
001A
FFFA
001C
0010
FFEC
FFE1
0002
FFFA
FFD1
FFFB
0009
001F
001A
0016
000A
001D
000F
0018
FFF2
000C
FFF2
000F
FFF5
FFFA
0002
FFE6
FFEE
0014
FFC0
FFE5
000B
0011
FFF8
0023
000F
FFF3
0004
0008
0003
0010
FFD8
000B
0006
002B
0019
FFA9
001F
001D
FFF9
FFFC
0026
001D
FFE5
0003
0004
0007
FFA9
0000
FFD4
FFF6
FFFD
FFED
0018
001B
FFFF
FFF1
0032
0009
FFE2
FFEA
001E
001D
FFFA
0023
000A
0002
FFF0
0011
000E
0013
FFC5
000B
FFEB
003E
FFEE
000E
FFC8
002B
0018
FFE1
FFA8
FFEB
0013
FFD4
0003
002C
0003
0004
0006
FFC9
0012
0025
003F
FFF5
FFFB
0001
0051
FFF6
FFE2
0025
0011
0006
FFC1
001A
0002
FFB4
FFEB
002F
0004
0021
FFC3
002C
0030
0003
000D
FFF5
FFE8
0001
FFC9
FFC6
002B
FFFE
FFD4
FFEB
0011
FFFF
FFD3
FFD1
FFC2
FFDA
FFDB
FFCA
FFEC
0026
0010
FFF0
FFF1
FFF3
FFF8
FFE4
FFF3
000E
FFEF
FFDC
0023
0004
FFF9
0004
000E
0024
0037
0016
0008
FFDC
FFF4
FFE3
0018
000C
FFDB
0009
0013
000A
0009
FFEE
FFF9
FFE9
FFE7
0002
FFEF
0012
FFE7
0020
001B
003C
0012
004A
000B
FFFB
0014
0011
FFDE
000E
FFBC
FFD9
FFF2
FFFF
FFEE
FFFC
000E
003F
0005
0016
003B
0008
0039
001E
FFF1
FFE7
0014
FFEA
002B
FFE9
FFFD
FFCD
FFD2
0010
FFFE
FFFD
000C
0008
FFD1
FFEF
000D
FFF6
FFF0
FFE6
0006
FFFE
FFDE
0027
0020
FFD0
FFD0
0018
FFB8
0002
0028
0032
FFB3
FFD0
0018
0008
0010
0031
FFEA
FFE5
0009
001D
FFEB
FFDF
FFFA
0004
FFC8
FFCD
FFE2
FFD5
0004
0014
0010
0024
0023
001D
0027
FFFA
000F
FFFC
FFDC
FFED
FFDE
003B
0013
0008
0020
0012
FFFD
FFFD
0014
0009
000D
0009
000F
FFF9
FFCD
000E
0013
FFF1
FFE9
0014
FFE1
000F
003E
001A
FFE3
FFFD
0015
FFF9
000A
0010
000D
FFF8
002E
0009
FFC3
FFD7
0028
0004
0019
000E
0029
FFFF
FFF6
0002
0028
001B
FFDE
FFC5
FFF7
FFEC
FFF9
FFF4
FFF1
FFF0
0009
000F
FFFE
FFF7
FFD4
0005
FFAC
FFDD
FFFC
001C
FFCF
FFF0
0012
0010
FFD6
FFF1
FFFB
FFF5
FFEF
0009
FFDC
0007
0011
000B
FFD4
0025
FFD2
FFF8
0014
0020
FFFC
FFF1
000B
0020
FFEF
FFE8
FFE3
FFD0
FFD7
000D
FFE3
000B
000E
FFF7
0000
0045
FFFA
FFD4
0007
0008
0006
FFFE
FFE2
FFEE
000B
0027
FFDB
FFB6
0024
FFE2
FFFF
0015
000E
FFDC
000E
0004
FFDA
FFE3
FFF6
FFF2
FFD8
0022
0000
FFF9
FFD9
FFFC
001E
000D
FFE1
0026
003D
0001
FFF0
000A
FFE6
0002
0014
000B
FFBF
FFB1
0028
000C
FFD7
FFFB
FFF9
000C
002A
FFFA
FFF5
0010
001D
0020
0024
000F
002B
FFFB
FFD5
0013
001C
FFFB
FFF0
FFF0
0005
FFE8
FFCF
FFFB
0008
001B
FFEA
0015
FFFC
FFF6
0011
000A
0011
FFF9
FFFF
0012
002F
FFE8
FFDF
FFF2
FFEE
0001
0000
FFF6
FFE5
FFD9
FFC8
FFB8
0011
FFE2
FFEB
FFEF
FFF8
FFF3
FFE4
000A
000F
FFF4
FFFE
0019
000A
0014
0000
0006
FFFF
000B
FFF6
0003
0010
FFFD
FFFB
FFE5
0016
FFF6
FFF6
FFD5
0016
0023
FFE5
FFE3
0027
000D
0015
002A
0017
000F
FFE6
0009
0028
0027
0018
000F
FFD5
FFCB
0031
FFF3
FFA3
FFE5
FFF1
0004
0013
001C
0018
FFF7
0009
0022
000C
0016
001D
001C
0031
0023
FFC7
FFBE
0009
0006
0015
0029
FFE9
FFD9
FFFB
001D
001F
0004
000F
0011
FFC9
FFD4
000E
0024
0008
FFF3
FFF8
FFF5
0008
FFFC
FFF7
FFF0
FFED
FFFF
FFED
FFEE
0004
0002
0000
FFEE
FFF6
FFEF
FFFF
FFF8
FFF9
0002
FFF8
FFF9
FFF5
0007
FFF9
FFF8
FFEC
000A
FFFE
000D
FFFE
000B
FFF8
FFFB
0000
FFFF
0003
0008
FFF3
0003
FFF9
FFFC
FFFA
0002
FFF8
FFF9
0009
FFFF
FFF1
FFF5
FFFA
FFF0
FFFF
FFEF
0003
FFF5
0003
FFFB
0002
FFEE
FFFE
FFFA
0001
FFFB
0000
0000
FFF7
FFEB
FFFE
FFFB
FFFD
FFFC
FFEC
FFFA
0000
0003
FFFD
FFF5
FFF6
FFFB
FFFA
0002
0002
0009
FFF1
FFF8
000D
FFFB
FFE9
0003
0009
FFF9
0002
FFFF
FFF1
0003
FFFE
FFF2
FFFA
FFFB
FFF4
FFFE
FFEE
0001
FFEA
FFF8
FFF4
0002
0004
0002
FFF9
0008
FFEF
FFF1
FFF9
0003
FFF3
FFF4
0007
FFF8
FFFA
FFF1
0009
0003
0005
FFF9
0001
FFF9
FFF6
FFFA
0006
FFFA
FFF6
FFF8
0001
0005
FFF3
FFF7
FFFA
FFF3
0000
FFFD
FFF2
0005
FFF1
0005
0008
FFFF
FFFE
FFFD
0006
FFF0
FFF0
FFFC
0002
FFFA
FFFE
FFFC
FFF4
FFF8
FFF1
0009
0001
FFFC
FFF3
0004
000B
FFF9
FFF0
FFF9
FFF4
FFEC
0006
0006
FFFF
FFEC
FFF2
FFF8
FFFA
FFF8
0009
FFEF
0004
FFF7
FFF7
0006
0003
0008
FFFC
FFF4
FFFA
0004
0001
0003
0005
FFF1
0004
FFF6
0005
0007
FFFD
0009
FFF7
0002
FFF0
0001
FFF6
FFFF
FFF3
FFF2
FFF6
0003
FFF8
FFFB
FFFB
FFEC
FFF5
0002
FFFB
FFF8
FFF6
0003
FFF9
FFF9
FFFE
0002
FFF9
FFFF
0005
FFF9
FFFE
FFFE
FFF5
FFFC
FFED
0006
FFF4
000C
0004
FFFE
FFF7
FFF1
0006
FFF7
FFFB
FFF4
FFF0
FFFF
FFEC
0001
0004
FFFA
FFF4
0005
FFF0
000B
0001
FFF4
0005
FFF9
000A
0005
0001
FFF6
FFEA
0005
FFF1
FFFD
0001
FFF1
FFEA
FFFA
FFF0
0005
FFFF
0000
FFF2
FFF5
FFFB
FFF5
FFF9
FFF5
0007
FFFF
FFED
FFF1
0002
0009
FFFC
FFF2
FFF5
FFFD
FFFF
FFF8
FFF3
0009
FFFB
000E
FFF9
FFEE
0003
0006
0000
FFEE
FFFD
0003
FFF2
0004
0001
0007
FFF6
0008
FFF6
0000
FFED
FFF3
0000
FFEC
001C
0007
001C
001D
0014
FFFD
FFE6
002D
0024
FFF6
FFE4
0009
0012
FFDB
0002
FFED
001D
005E
FFE6
FFF3
FFFA
000E
001F
0053
0007
FFB9
FFE5
0025
FF95
FF8A
FFDE
0033
FFEA
0029
000B
FFF5
FFCD
0013
0028
002F
000C
FFFE
0015
FFFE
FFF3
0003
FFF7
001B
FFE8
FFF2
0014
0015
FFF6
FFFC
002E
0029
FFE4
0019
0018
003E
0000
FFDF
FFE9
FFF9
0045
FFF1
0019
FFB7
000F
0005
0001
FFBC
000F
0010
FFFC
FFE3
0015
0008
FFE8
FFE1
002D
000E
0018
FFCF
0002
0000
001A
FFE9
FFE9
0001
FFF9
0002
FFDB
FFE8
FFED
FFCF
FFDE
0003
FFE2
0000
FFED
FFEB
000D
002C
FFDB
FFEC
0025
0000
FFC9
FFED
0036
0035
FFBD
FFE8
FFF2
0015
FFFC
FFF4
FFFB
004D
0006
FFEE
0004
002D
FFDC
FFE8
0004
FFE9
FFE4
FFD9
FFC5
0027
003D
FFE0
FFEE
0000
000B
FFEB
FFEF
FFD8
003A
0009
FFFB
FFDC
001C
FFFB
FFF9
FFEB
0012
FFF1
FFFD
FFD8
FFEA
0021
FFD3
FFFF
000A
0026
FFFC
001E
FFC9
FFC7
FFCC
0012
FFD4
FFC3
FFC6
001B
FFCB
000F
FFD9
0053
000E
0010
001E
0010
0009
002A
FFFF
FFC2
000F
000C
0012
FFFE
0014
FFFE
FFBD
000E
0013
FFA0
FFC1
FFF9
0009
FFF7
0031
FFDB
FFF1
0017
0029
0015
0001
0028
002B
003B
FFED
FFEF
FFF1
FFE9
000E
FFA7
FFC4
0041
000B
FFE0
FFDD
0001
002E
000B
0009
0034
000B
0004
FFE9
FFF7
0028
005F
0019
FFFA
FFFF
001D
0003
FFED
0015
FFF9
0027
FFD5
000B
FFCA
0018
0000
FFF8
FFF8
FFFD
0012
FFD2
0016
001A
0036
FFEA
FFEA
FFFE
0011
FFAB
FFE8
FFFC
001E
FFFD
0011
FFE2
FFE8
FFFC
FFFD
0007
0016
FFCF
FFFA
0006
FFF0
FFCD
000E
000E
0026
0023
0010
0045
FFCA
FFFF
FFEB
0028
FFD6
000B
FFF8
0014
FFE2
0021
FFE8
FFE2
FFE9
0042
0004
0011
FFD0
0011
0003
001D
FFBB
FFEC
0021
FFFA
0009
000F
002C
FFE6
000A
FFEC
0003
001C
000A
FFF5
0024
001F
FFF2
FFEA
FFFF
0003
001A
FFEF
0018
000B
0004
FFFA
FFFB
FFFD
0005
FFF0
FFFD
0000
FFF1
FFF0
0003
0009
0001
0001
000B
0006
FFF7
0000
0001
0003
0006
FFF6
0005
0004
FFFA
FFEC
FFFA
000A
0004
FFF9
0002
FFFD
FFF3
FFF0
0001
FFF7
000A
FFF9
FFF9
0005
FFF3
FFF0
0009
FFFD
FFFA
000A
FFFE
0004
FFFF
0005
FFFC
FFFD
FFFF
FFF3
0008
FFF9
FFFA
FFF7
FFF1
FFFA
0000
FFF1
0004
0001
0002
FFFC
FFF7
FFFD
FFFC
FFF7
0001
FFF0
FFF1
FFFD
000B
FFF0
FFFC
0003
FFF6
0004
FFFA
FFF5
FFF6
FFF4
0002
0003
FFF3
0003
0008
FFF5
0004
FFF8
FFFE
FFFC
FFF3
0004
FFF6
FFF4
FFFF
FFFB
FFFB
FFF5
0007
FFF7
FFFC
FFFB
FFF8
FFF8
0007
FFFB
FFFB
FFFF
FFFD
FFFB
0007
FFFC
FFF1
FFFC
FFFB
FFFE
0006
0000
FFF6
0006
FFFC
FFFB
FFF1
FFFE
0005
FFF9
FFFA
FFFD
FFF5
0003
FFFF
FFF3
0009
FFF3
FFFB
FFF3
0001
0009
FFF3
FFFF
0005
FFFD
FFFF
FFF9
0001
FFF3
FFFE
FFF6
FFFF
0007
0003
FFF1
0009
FFF7
FFF4
0002
FFFB
FFEF
0007
FFFF
0001
FFF8
FFF8
0008
FFF6
0006
FFFD
0005
0000
0000
FFF6
0005
0009
0006
FFF9
FFF7
000A
0006
0005
000A
0008
0002
FFF9
FFFA
FFFC
FFFA
FFF1
0000
000A
FFF9
0007
FFF9
FFF6
FFFA
FFFC
FFFC
0004
0005
0005
0000
FFF1
FFFA
0002
FFFD
FFF1
FFF1
0001
FFFE
0009
0005
0003
FFFE
0005
0001
FFF0
0002
FFFF
FFFE
FFFA
0005
FFF2
0004
0004
0006
0003
000E
FFF5
FFF8
000A
FFF3
0006
0006
0004
FFF2
0002
0002
0007
000A
0003
FFF2
0005
FFFA
FFF0
0007
0005
FFFE
FFF8
0008
FFF8
000A
FFF3
0005
FFF4
0007
0002
FFF7
0009
FFF9
FFFD
FFF5
FFFF
0001
FFFA
000A
FFF1
FFF7
0009
FFF3
FFF8
0000
0008
FFF1
FFF9
FFF2
0006
000A
FFFD
0003
FFF1
FFF3
FFF3
0003
FFF0
0005
0007
FFF3
FFF1
0007
FFF1
FFFA
0001
FFF3
FFFA
FFF9
FFFC
0003
FFF1
FFFD
FFF2
FFF4
FFFF
0002
FFFF
FFF6
0004
0006
0000
000B
000A
0003
FFF8
FFF8
FFF9
FFF7
FFF2
0004
000C
FFEE
FFED
FFF5
0002
FFEB
FFFA
FFF9
FFF3
0004
0009
FFF4
FFF6
FFFA
FFFD
FFFA
FFEC
0000
FFF1
FFFF
0005
0006
FFF9
0001
FFF6
0006
000B
FFED
FFFC
FFF6
0009
FFED
FFFC
FFF4
FFF2
FFFE
FFF6
FFF7
FFFC
FFFF
FFFB
FFF4
0008
FFF5
0006
FFF6
0001
0006
FFF0
FFED
FFEE
FFFC
FFF5
FFEB
0006
0004
FFEF
FFF2
FFF6
FFF1
FFF1
0001
FFFA
FFF0
0005
FFEF
FFFB
FFF3
FFEF
0003
FFEF
FFFE
FFF1
FFFF
FFFA
FFFF
FFED
FFED
FFF2
FFF7
FFEE
FFFF
FFEC
FFFF
0003
FFFC
FFEB
FFFC
0009
0001
FFF2
FFF1
0006
FFED
FFFC
FFFD
FFFC
FFEF
0005
FFED
FFF9
0003
0000
FFFA
FFF1
FFF6
FFFE
FFF3
0002
0005
FFF9
0008
000B
FFFC
FFEE
FFFF
FFF7
FFFA
FFF7
0001
FFEC
FFF5
FFF9
FFF8
0001
FFF2
0003
FFF3
FFF0
FFF8
FFF5
0003
FFF5
FFF0
0000
0000
FFEC
FFFD
FFF6
FFF7
FFFD
FFEA
FFEF
FFFB
FFF0
0001
FFF7
FFFE
0005
FFFD
FFEC
FFF1
0002
FFF0
FFEC
FFEF
0008
FFFF
FFF0
0000
FFED
0006
0007
FFEF
FFFD
0004
FFF0
0006
FFFA
FFED
FFFC
FFF9
0004
FFFA
FFEB
0000
FFF0
0002
0002
FFFE
000A
0002
FFFF
0003
FFFB
FFFD
FFF5
FFEC
FFEF
FFF2
FFFC
FFF2
FFEF
FFFC
0006
FFED
0000
FFFF
FFF2
FFF7
0002
FFFB
FFF4
FFEB
FFF8
FFFA
FFF1
FFEB
0006
FFFB
FFFB
0005
FFF9
0002
FFEB
FFF6
0004
FFFC
0003
FFF6
FFF9
FFEE
FFF2
0007
FFF6
FFF8
0002
000B
FFF0
FFFE
0006
0009
0007
FFFA
000F
FFF7
FFFF
0001
FFF5
000A
FFF1
FFF4
FFFA
FFFE
FFFA
FFEC
0004
FFEC
FFEE
0001
FFED
FFE9
FFEF
000D
FFF2
FFFA
FFFA
FFF1
FFFB
FFFD
FFF4
0007
FFF7
0000
FFF6
FFF8
FFEC
FFEA
FFEF
FFFE
FFFE
FFEE
FFEF
0007
FFFC
FFFC
0000
FFF7
FFEA
FFF1
FFFA
FFEB
0003
FFEF
FFEC
0000
0001
0006
FFEA
0009
FFEA
FFEF
000B
FFFE
FFFB
0006
FFFA
FFEE
FFEE
FFF3
FFF3
FFF8
FFFE
0005
FFED
FFF8
FFFC
0007
FFF3
FFF5
FFF9
FFEF
FFF6
0004
FFFB
FFFF
FFFE
0004
FFFA
0002
FFEA
000F
FFED
001E
0014
0001
002C
001F
0030
000E
FFFF
FFF9
0022
001F
FFFF
000A
FFCD
FFF4
0004
0014
003D
FFDB
FFDE
0016
0016
FFF2
FFCD
FFFB
FFFC
0008
0017
001B
FFF4
FFD8
FFD9
FFFD
FFF6
FFFB
001B
FFF5
0003
FFED
FFF9
FFE9
FFF1
0003
0016
0003
FFD5
FFF1
FFF1
0005
FFF1
000E
0026
0009
002D
FFED
FFE6
0005
FFF1
FFF3
FFCA
000D
003C
FFDF
FFE7
FFE2
FFE9
FFCF
0012
002A
FFEC
FFFF
0031
FFDC
FFFE
FFFC
FFF4
FFB8
FFCF
FFE0
FFF9
FFE3
FFD0
FFBE
0029
FFFD
FFD3
FFDA
001F
FFBD
FFCB
FFE6
FFF0
FFCE
FFE1
0012
0026
FFF0
0007
FFF3
002F
0014
0001
FFF1
FFFA
FFF5
FFCF
0029
FFDA
001F
FFF2
FFD8
FFE6
FFFC
FFFA
004F
0010
FFF5
0012
001D
0003
0018
000A
0014
0010
0005
0003
0021
0021
FFD6
FFC8
0011
0039
0022
FFD9
0026
FFDF
0003
FFC2
FFF7
0019
FFE2
FFB6
FFE4
000A
FFC7
FFD0
FFE1
0013
FFDC
FFDA
FFEE
0035
FFF1
FFCC
FFFE
0023
FFE9
FFC3
FFEE
FFF8
FFD1
000F
FFF6
FFFD
FFFD
000B
000A
0022
0030
0034
001B
0000
FFE5
0000
0004
FFD3
FFDB
FFE3
0006
FFB6
FFEE
FFE4
001A
FF97
FFF2
FFFA
FFF7
FFA5
FFB0
FFF4
FFB8
FFE0
0014
FFE9
FFEB
0010
001E
0038
FFF6
FFFD
FFDC
FFF2
0000
FFEC
FFEB
FFEC
0007
FFF8
0014
FFE9
FFED
0002
001F
FFFE
000B
FFF7
0006
FFE8
000A
FFC5
FFA8
FFBF
0004
FFF7
0018
001B
FFFB
FFE8
0025
0013
0005
FFF1
0029
0008
FFE7
0002
0024
FFE4
FFF6
0005
0006
0013
FFFF
0009
0018
0029
FFF7
FFFB
FFFB
FFF1
002A
0002
0016
001F
FFEB
0009
FFEA
0013
0016
0017
0014
002A
0014
FFFC
0002
0019
FFEC
0004
FFF2
FFAF
000D
FFCF
FFE5
FFB6
FFC4
FFE7
0006
FFFE
FFF9
FFF9
FFF2
FFE9
FFF5
FFC6
FFEA
FFD6
0005
FFE0
FFC9
FFEA
FFD7
FFE5
FFED
FFF1
FFDE
0009
FFE6
0007
FFD9
FFDB
FFBD
FFC4
FFD8
FFD8
FFD3
FFE6
FFEA
0009
000E
002E
001E
002F
001B
0024
0032
001E
FFED
FFE9
FFF4
000A
0009
0004
FFE2
FFD6
FFEC
0022
FFD1
FFD5
FFC5
FFFC
0010
0002
0006
FFCE
0000
0005
FFFD
002E
0029
001C
001C
0004
FFD9
FFED
FFFA
FFCF
FFEB
002C
0039
FFD9
0000
0003
001A
001F
FFFC
0014
0009
FFEB
FFEB
FFF3
FFCB
FFEC
FFF3
FFED
0035
0035
000B
FFE9
FFD2
0002
0004
FFF7
0010
0001
0010
FFEF
0012
FFD6
0048
002F
0001
002D
FFF2
0024
0006
FFCD
000C
002B
003E
FFE0
FFFE
0019
FFDE
FFC9
FFC0
FFC9
FFD7
0005
FFF0
FFDE
0039
FFF7
FFA5
FFEF
0004
FFEA
FFB2
FFAE
FFC9
FFFE
FFA3
FFD2
0002
0041
FF96
002C
0010
000A
FF88
FFF8
FFFD
0013
FFE5
FFE4
0024
0023
002F
0029
0049
0028
FFE4
0012
FFF1
FFEA
FFF8
001B
FFEC
0005
0016
0009
0012
FFFA
000F
001B
FFFF
FFF5
0021
002B
0008
FFBD
FFD4
0002
0002
FFF5
0001
000C
001A
0022
0004
FFD6
002E
000B
0001
FFEE
FFF2
FFE0
FFF2
0000
FFF2
FFDD
0011
0018
FFFF
FFF2
FFFD
FFF4
0017
0020
0014
FFF1
FFE1
FFBD
FFFC
0000
0004
000E
0002
000E
FFF0
0011
FFF6
0004
0000
FFF1
FFEF
0000
FFE9
0016
FFF0
FFEE
FFD5
0015
FFF3
0005
0016
0018
0006
0010
0009
001E
0024
FFFE
0040
FFEC
FFF8
0014
001F
FFEC
FFEA
FFE5
FFE2
FFCD
FFFC
FFFB
FFEB
0017
FFF6
002E
FFE3
0021
0022
0021
0024
0028
FFD0
FFDC
000D
FFFC
FFFC
FFC8
FFDD
002F
FFC5
FFC6
0009
002D
FFAF
FFA0
FFEA
001C
FFC1
FFE0
FFC5
000B
FFE6
0013
FFCC
FFFB
FFFE
FFF4
FFF9
FFFD
FF8E
FF9D
FFD4
0014
FFFA
FFC2
FFE9
002A
0034
0020
0027
0027
0021
0011
FFF6
FFE3
FFE5
0025
FFEB
0019
000B
FFE0
FFEA
0004
0023
000E
0009
FFE7
0011
0018
FFD6
0009
000B
003D
001F
001B
0003
002F
001A
FFBC
FFF7
FFEE
FFE5
0022
0015
001E
0000
FFE4
0008
0007
0044
0047
FFEC
000F
0024
FFE7
FFE9
000A
000C
FFEE
004A
001F
0004
FFD9
FFEF
0030
0011
FFD5
001F
002B
FFE8
FFD3
0020
FFF3
FFFA
0004
000D
FFF1
FFF5
002B
0020
0007
FFE4
000C
FFE5
0020
0021
001F
FFCA
FFCC
000E
FFC4
FFF0
FFE3
FFFB
000E
FFB7
FFE0
FFEF
002B
0005
0028
FFF2
FFE2
001E
FFD0
FFE2
FFF8
FFF4
FFFB
FFEF
FFE9
001D
0007
FFDD
FFD8
0029
FFF4
FFEA
0009
FFFA
000C
000B
0008
000F
FFF4
0000
0000
0018
0009
0020
0030
0017
FFF7
0002
0028
FFF4
FFF6
FFFB
0000
0016
FFCA
0029
001F
FFE1
FFEC
FFFC
FFC3
0001
FFE6
FFF4
FFBE
001C
0015
FFD4
FFF2
002F
0008
FFDB
FFE7
FFF6
000F
000A
FFF4
0001
001A
FFC5
0007
FFFF
FFE9
FFEE
000D
0001
FFEE
0000
FFE7
001B
FFF9
FFF5
FFF2
0011
0008
0022
FFFD
000B
FFE0
0057
002D
FFF1
FFFE
FFF9
000D
FFC9
FFEC
FFF6
002C
003A
0010
0005
001C
0014
000A
0012
FFE8
0021
FFE9
FFD5
FFD1
001C
FFCE
FFF7
FFF8
0029
0023
0014
000C
FFFB
FFF4
001E
FFFD
003D
0025
0019
001C
003D
FFCF
FFD6
FFDE
0010
0011
FFEA
FFEC
FFEA
001D
0011
001A
FFAC
0022
FFBE
0007
FFF4
FFF6
FFEA
0010
FFE5
000D
0002
003D
0016
002D
0016
FFFF
0023
FFFA
FFCA
FFE5
000B
FFF1
000B
FFCC
FFD5
FFF3
FFCB
FFE3
0012
FFF2
FFC0
0037
FFD8
0016
001F
0031
002D
000C
0018
0023
001A
0028
FFF9
FFEC
FFE3
FFE5
0007
FFE4
0004
FFDE
0024
0026
0001
001A
0023
0016
0028
0011
FFDC
0021
001A
FFFF
FFFE
001E
001B
0014
000F
0024
FFED
FFE9
FFFE
FFCB
FFD8
FFEB
FFFE
FFDA
FF9A
FFC8
FFF3
FFFC
FFF7
0015
FFF5
FFF4
FFF5
0015
0016
FFFC
0040
003C
0011
0019
FFE0
FFEF
0004
0019
FFCE
FFF5
0005
FFFD
003C
FFF5
FFDE
FFFD
0008
FFFA
0013
FFEB
FFFA
002F
000B
FFF3
FFF4
000B
000E
0014
001C
FFF4
FFFE
FFE8
000F
FFF4
FFE6
FFE6
0017
FFEE
FFF5
FFE3
FFFC
FFF0
001B
0028
0017
000E
FFE5
FFD5
0012
FFF4
FFE2
FFC0
0011
0002
FFE3
FFDF
FFD5
FFF8
001B
004C
001D
0011
FFFF
0021
001C
0015
FFEB
FFF1
FFFC
000A
FFFB
FFE0
FFFB
FFFD
0004
FFF5
FFFD
FFF1
0005
0000
0005
FFFA
0002
FFFB
0009
FFF2
0001
000B
FFF8
000B
FFF8
FFF2
FFF3
000A
0000
FFEB
FFFA
FFF5
FFF6
FFF7
0010
FFEC
FFFF
FFFD
0007
0005
FFF7
FFF8
0003
FFFD
FFFA
000A
FFFF
FFFB
0000
FFF2
FFF5
0003
0000
FFFF
FFF0
0000
FFFC
000B
0006
FFFF
0002
FFF8
FFFF
0003
FFF0
FFFF
FFFE
0003
FFFB
FFEE
FFFB
FFFA
FFF0
0005
FFFE
0000
0005
FFFC
FFEF
000E
FFF2
FFF9
FFF1
0006
FFFA
0008
FFFE
FFFC
0001
FFF7
0006
0009
FFF2
FFF2
FFF5
FFFF
FFF6
0006
FFF1
FFF6
FFEE
FFFB
FFFE
FFFA
FFF3
FFF7
FFFE
0009
0003
FFFB
0000
FFFD
0008
FFEC
FFF9
0005
FFFB
FFFF
FFFC
0002
FFF5
FFF4
0009
0004
FFFD
0005
FFEC
FFF5
FFEF
0007
000D
0004
0005
0002
0004
FFF6
FFFF
FFF9
FFFB
FFFB
000B
0002
000C
FFF7
0005
0005
FFFE
000A
FFEF
0006
FFF3
FFFB
FFFC
0005
FFFC
FFF8
000B
0002
FFFC
FFFE
FFF4
FFF4
FFF7
FFF3
0009
FFF5
FFFD
0000
FFF7
000A
FFF0
FFFC
FFFC
0005
FFEF
FFF0
0002
FFF7
FFF0
0004
000C
0001
FFFD
FFF2
FFF6
0000
0007
FFF7
0007
0009
FFF4
0000
000A
0004
0006
FFFB
FFF3
0007
0000
FFEE
FFF7
0008
FFF4
0003
FFF5
FFF4
FFEF
FFFD
FFF7
FFFC
0001
FFF9
0004
FFFC
FFFC
FFF8
FFFD
0005
FFF8
0009
000A
0008
FFF8
FFFE
FFF5
FFF3
FFF4
FFF6
FFF1
0002
FFFC
FFF6
FFF9
FFF6
FFF4
0002
FFFC
FFF4
FFF3
FFF8
FFF5
FFF8
0004
000B
FFFC
FFF5
FFF7
FFF0
FFEE
FFF7
FFF2
FFFA
0007
FFF8
FFFA
FFFD
0005
FFF3
0002
0005
FFF3
FFFD
0004
FFF9
0000
0009
FFF6
0009
FFFC
FFFC
FFFA
FFF7
FFEF
FFF9
0007
FFEC
FFF3
FFF6
FFFA
0001
0006
FFF5
FFF7
0001
0004
0005
FFFA
0008
FFFE
FFF6
FFFB
FFF6
FFFF
FFFA
FFF3
0007
FFF7
FFF4
FFF1
0008
0008
FFFE
FFF8
0009
FFFF
FFFF
FFFC
FFFA
000B
FFFB
FFFC
000A
0005
FFF5
FFFE
0008
FFFB
0004
FFFD
FFF5
0009
0000
FFFF
000B
0001
0004
0009
001E
001B
0007
0023
0002
FFC5
FFC9
0015
FFD5
FFD5
FFF1
FFD1
0001
FFBA
FFE8
0027
002F
0037
FFF0
FFC9
0012
000C
001A
FFE3
0013
FFF6
001D
FFE5
000D
FFD5
0045
FFFC
FFEF
0005
0023
FFD0
000F
001F
0017
FFA5
0010
0016
0016
FFEB
0034
002D
FFAD
FFE2
0013
0024
FFC8
001C
0022
FFDB
FFE7
000F
002F
FFFF
FFE3
0034
000B
0026
FFEC
FFB9
0021
0022
FFB8
FFE4
000E
002C
001D
FFDD
FFFB
0007
000A
FFB0
FFE2
0003
000E
FFE2
FFC7
FFFB
FFFE
001F
FFE0
0021
FFFC
FFD6
FFD0
000F
000B
FFC3
FFE7
0026
FFF3
0002
FFF6
FFE2
0012
FFD2
FFBA
FFD6
FFD4
001D
FFF5
FFF6
FFEF
0040
0026
004B
001A
FFCC
000F
0014
0001
FFC2
FFFC
FFF3
0013
FFEB
FFED
002A
FFE7
0005
0023
FFF2
FFD8
FFC5
FFD9
0011
002B
FFFF
FFE7
0020
FFF9
FFED
FFDD
FFF0
0007
0008
000F
FFF6
FF96
FFC6
FFE1
FFF0
FFEF
FFB2
FFA4
0003
FFF1
FFEA
FFF0
FFFB
003D
0027
FFF2
0015
001A
FFF1
0004
0037
001E
FFDB
FFE9
FFF7
004F
000E
FFF6
0014
0011
0019
FFEA
FFFF
FFC0
FFD9
0007
FFEB
FFE3
0023
FFF7
FFB6
0014
0026
FFFC
0004
001A
FFDE
FFED
FFDB
0028
FFFD
0012
003B
FFEC
FFE7
FFEC
003F
0030
FFEA
FFFA
FFF1
FFF7
FFE8
0010
000A
FFBC
FF67
FFF4
0036
FFDE
000B
0017
0016
FFFC
0015
0032
0032
0026
FFB1
FFCA
FFE9
0037
FFEC
FFED
FFAC
FFDA
001C
003E
FFF5
0004
FFBD
FFF4
FFDE
001A
000B
FFF9
FFF0
002D
FFFD
001E
001B
0020
0005
000A
FFE1
FFD3
0004
FFEA
FFE6
FFF2
002B
0005
FFF8
000D
FFC9
FFF7
0004
0015
FFA4
0036
0025
0001
000E
0015
FFF2
FFB3
FFFB
FFFA
FFBA
FF99
FFD3
0002
FFFB
FFC6
000F
FFFF
0004
FFE7
0007
000E
0007
FFD9
FFD0
FFEE
001A
0004
FFE8
FFA4
000C
FFE7
FFDA
000C
000E
FFF8
FFE8
FFF6
0023
FFEC
FFAC
FFB9
0006
FFF5
FFC4
000A
001F
FFED
FFCF
0026
0018
0008
FFF2
000B
0023
FFC1
003C
0021
FFEC
FFDB
0005
001E
0025
FFE4
FFF4
0036
0022
0017
001B
0022
0007
0049
FFC8
FFB0
FFD1
0017
FFF6
0025
0001
FFF3
0059
001D
FFE2
FFD5
FFD9
FFE2
0013
FFC4
FFEC
003B
FFFE
0003
0007
000D
0009
FFE6
FFC5
000B
0015
0005
FFC1
FFF3
0020
0012
0019
0019
0014
FFE8
FFE9
FFEA
0006
FFFB
FFE8
0012
001E
0007
001D
0002
FFF1
0000
0006
FFCC
FFF5
FFA9
FFC8
FFF3
FFEE
0027
FFE1
001E
FFEB
FFEF
FFE0
0023
0012
001A
000C
FFE6
004C
0028
FFC5
FFE7
0005
002E
FFF1
FFF3
000A
FFFE
FFAC
FFB8
0000
0024
FFDA
0020
0051
0028
003D
0015
FFE5
0001
001E
0007
0026
0024
FFEB
FFFF
0001
0007
0046
FFD4
FFD3
FFD1
0055
FFFC
FFF4
000A
FFFF
FFD5
000C
FFEE
FFDE
FFEF
0011
0007
000E
003B
002E
000B
0000
0010
001D
0007
FFFD
000A
FFF6
0010
0018
FFC4
0004
0014
FFE2
0012
0048
FFF6
000B
FFF8
FFFB
0026
FFD0
0007
0003
000F
FFCC
FFE8
FFD5
000E
FFFF
0018
000C
0002
0027
FFFE
0010
0014
FFEE
FFED
000C
FFE0
0006
FFFD
0023
FFE4
000D
0000
FFF8
FFEF
FFD4
000A
001E
FFEC
0003
0025
0006
FFE1
0027
FFE5
FFED
FFEE
FFE0
FFEA
0010
0021
000B
FFE4
FFEB
0018
FFD8
FFF9
001A
FFF1
0003
000A
0024
0010
FFFB
0020
FFE8
FFE9
FFDD
FFDB
002D
000E
FFE9
FFE8
001B
FFFC
001D
001F
0011
FFFF
0002
0002
FFFC
FFF8
FFDC
0000
FFF6
0011
0022
001D
0007
FFFD
FFD4
FFE9
000C
FFF9
FF9A
000E
FFE9
003A
001A
0011
0010
FFF1
001C
0028
0028
0017
FFD6
FFFE
0000
0035
0013
FFFD
FFF4
FFD3
0012
0003
FFFE
FFDF
FFF9
FFFE
0019
FFEE
000D
0035
FFFC
FFE5
0002
FFF5
FFC4
FFA9
FFC9
FFBE
FFF4
0015
FFD2
0004
FFF8
FFE7
FFFD
0031
0000
FFE1
000A
FFF5
0021
0010
FFEF
FFC2
FFCF
0020
FFDC
FFD8
0003
0008
FFCE
0018
000E
FFF2
FFCD
FFDA
0009
0029
002B
0020
FFFE
FFF2
001D
0012
FFF9
FFC2
FFEB
0044
002D
FFEF
0003
FFFF
FFEE
FFDC
0025
0035
002D
FFE4
000F
0011
0004
0018
FFEA
FFE1
000F
0032
FFDB
001A
0004
002D
001A
0011
0000
0028
FFDA
FFFE
0010
001B
FFF1
002F
0028
FFF4
FFFC
003A
FFEB
FFDB
FFE3
0005
FFF6
0011
FFCD
FFFE
FFF0
0008
FFE5
0000
0008
0008
000B
001B
000C
FFD3
FFF7
FFFF
FFF5
FFFE
001B
0027
FFFD
000E
000E
002A
FFF9
000D
0028
FFE2
0013
FFD7
FFFB
0003
FFFC
FFC2
FFFC
0011
FFF8
FFE5
FFC6
FFCB
FFDA
0029
FFEF
FFE9
0017
0004
FFFA
FFF5
0014
FFDA
FFCB
FFD4
001F
001E
FFC6
FFBB
0008
0011
FFF7
0014
0018
001B
FFE8
FFE0
000E
FFFB
FFFB
FFFA
FFF5
000D
0027
0018
FFFC
FFF2
0044
0022
0028
0013
FFEA
FFFA
FFF5
0003
0000
0008
0010
0012
0014
0031
002A
FFED
0019
0021
FFF8
FFE3
0003
0013
0011
FFFC
0009
FFEC
0011
001A
FFE5
FFC7
0000
FFDE
FFF2
0009
000C
003C
FFAF
FFD6
FFF7
FFF8
000B
FFEF
FFE6
FFF3
0009
FFE6
0016
002F
0028
0002
FFFC
0017
FFF6
002E
0028
FFE2
0010
0011
FFFC
FFF4
FFF8
0019
FFF5
0005
000B
FFD8
0018
003E
0000
001B
FFE3
FFE1
FFF2
FFE7
FFD4
FFD7
FFED
FFD4
0021
FFCF
FFCD
FFFC
001B
0034
0024
FFF5
0010
FFE4
FFCE
FFEA
000C
001C
002A
0017
FFD6
0012
0014
0014
0007
FFFB
0047
0028
FFE9
FFD2
0014
FFF8
001B
FFDD
FFC4
FFB7
0006
0037
FFFC
FFCC
001E
001E
0000
0006
FF9F
FFCF
FFE1
FFB3
FFD6
002E
FFE0
FFE1
0021
000D
001C
0012
FFF7
FFF7
FFE6
FFEB
FFEB
FFF9
0006
0000
FFE7
0014
0032
0018
FFE1
FFFF
0024
0026
FFD6
000B
FFE9
001F
0023
0018
FFFD
0009
0008
0003
FFFE
FFF7
FFE4
FFCD
0028
000D
FFBA
0016
0027
0003
FFF5
FFAF
0008
0023
FFF1
FFBD
FFE6
FFDA
FFEE
FFFA
FFDF
FFD6
0029
0002
0050
0022
001F
FFCB
0012
FFFC
001D
FFEE
FFDD
FFEE
FFBD
001B
FFF1
FFDE
001D
0027
FFF0
0022
FFED
0010
001C
002F
003D
0039
000B
0017
FFFD
FFED
0012
FFDB
FFD9
FFD4
0002
000C
000C
FFE9
FFF6
FFFF
003B
0003
0004
000B
FFC1
0030
001A
FFE3
FFEA
FFB4
000D
0007
FFD4
003B
0029
FFF6
FFE2
003C
0004
FFF5
FFF6
FFBC
FFD8
0020
FFFD
004C
FFF9
000B
FFE5
000E
000E
0025
001A
FFE2
0027
0031
001F
0008
FFEE
000F
000D
0004
FFE6
001F
FFFF
FFB8
002E
0008
0004
000B
003F
000A
FFBA
000D
0029
FFE6
0044
0010
FFA8
FFE1
003B
FFED
FFC0
FFED
FFFF
FFCC
0005
001C
0001
FFD1
002F
001E
FFF2
FFF6
FFA6
FFEC
0020
0024
FFCF
0004
0017
FFE8
004E
0001
0005
000E
000C
FFD3
FFE8
FFF7
FFF3
FFC0
FFF4
0003
0023
0018
0000
0008
FFFD
0000
0027
0019
FFE5
002C
FFCB
FFE6
FFFF
FFE2
0001
FFF9
001F
001F
FFE7
001A
0007
0017
0008
002D
0004
0021
0020
FFF8
0013
FFFE
0002
FFE4
000B
000D
0019
FFDB
FFE0
0032
0027
FFF8
0014
FFE2
FFD2
FFE2
FFE8
0002
0019
0027
FFF9
0017
FFF7
FFF6
FFB4
FFDD
FFED
0006
0016
FFFF
0033
0018
000F
FFDE
0018
FFF9
FFEB
001D
FFF7
FFF9
FFE5
001C
0004
0043
FFE8
0009
FFFB
0009
FFDA
0014
FFFB
0052
FFDE
0022
FFDD
FFE6
FFFA
0005
FFCF
FFC4
000C
FFFD
FFF0
003D
FFE5
0002
000C
FFC0
FFFD
0008
000B
FFF9
0036
0008
002A
0001
FFED
0013
0003
FFEE
FFD4
0016
0005
FFC7
FF99
0017
FFEF
FFEE
FFE3
FFEA
FFF1
FFEC
003B
FFD4
FFCF
0008
FFC6
FFAA
000E
0016
FFB1
FFE8
0009
0021
FFF9
FFC4
0028
FFFB
FFE7
0017
FFD8
0028
FFF4
0007
FFF4
FFCB
002C
0019
001A
0017
0039
0010
001B
000E
0002
FFF5
FFE8
FFFB
0035
0002
0004
FFE4
FFF1
FFEB
FFFC
0029
0023
FFF9
001B
0000
0005
001A
FFFB
FFCB
FFC8
000D
FFFE
FFE2
FFD9
000F
0025
FFFC
000F
002F
0001
FFE3
003A
0024
FFF8
0018
FF8E
FFE5
001C
0001
FFC2
FFDA
FFF0
0039
FFEE
000C
0013
FFDE
0040
0010
FFF4
FFFF
001C
0015
0021
FFFB
0029
FFD2
FFDA
0005
0019
0014
FFFD
0020
0023
003E
0023
0013
FFE4
FFE6
000D
FFFA
FFF1
FFCD
0021
0031
0028
FFE7
0013
FFF5
002B
FFF9
000D
0028
0027
FFF6
FFCB
FFBD
0017
FFDC
002D
0000
FFF9
0007
FFF2
001F
FF8C
FFD1
0022
0022
FFF8
FFE9
0014
FFDE
0022
0000
FFFF
0011
FFEC
0007
0013
000C
FFE7
FFFC
000D
0010
0002
FFEE
000D
000C
FFFC
FFFC
0018
FFD2
FFE3
FFF8
FFED
0002
FFB9
FFB7
002C
0058
0004
FFE7
FFCB
FFCD
000F
0022
FFDD
FFEA
002E
0024
FFFD
FFFE
0017
FFEF
0002
FFE7
0007
FFF5
FFE0
FFE6
0016
0009
0017
0014
0030
0004
000C
FFDD
FFBF
FF93
FFA0
FF8D
0008
001A
0023
FFF4
000E
0030
0009
FFFE
FFE0
000A
FFE6
FFDC
FFFE
0002
0049
001A
000F
000B
FFFC
FFF4
0013
0015
000A
FFC8
FFD3
FFE9
000C
FFF0
FFF9
0005
000E
0024
FFB5
0029
002A
0014
FFFF
0031
0035
0012
001E
003F
FFD0
FFF0
002B
FFE3
FFFF
FFC5
FFCF
0015
000C
FFF4
FFDE
FFE4
0037
0014
0000
0014
FFFC
0002
0027
000A
FFEF
FFCD
FFF4
0034
000D
0002
FFAC
0005
0002
FFED
0019
0009
0000
002D
001E
002D
002A
0024
FFF6
FFE3
FFE7
FFD5
0015
FFEE
FFF2
0041
001D
FFE1
000A
0016
0023
FFB8
FFB3
FFE3
FFE8
FFFD
FFC9
FFC1
002F
002E
FFF9
FFED
003B
0011
FFFB
0030
FFDC
0002
FFEC
001A
FFF0
0009
0005
0009
FFFF
FFDC
FFF1
001A
0022
0022
FFFC
FFF8
002C
0005
FFE3
FFDB
FFF4
FFFE
FFF1
FFCF
0014
0005
0026
002D
002C
FFFB
0028
0030
0003
001E
FFFA
FFEB
0004
FFF0
FFF9
001F
0044
0003
FFE8
FFF0
0023
FFF6
FFFC
FFE7
FFD1
FFFF
000D
0045
FFEA
0000
FFF0
FFFA
0013
FFE7
0009
0011
000E
FFFC
0006
0015
FFF7
0023
0017
0037
FFF4
FFE3
FFDC
FFC3
FFF8
0016
FFE4
FFF3
000D
0014
0012
0019
0014
FFE9
0026
FFF0
002C
FFF2
FFE0
FF85
000D
FFF5
FFE4
FFDA
0022
001B
000D
FFFD
0011
0025
0035
000D
0003
FFF2
FFC6
FFA6
FFE7
0003
0009
FFE9
FFEF
000D
0015
0023
FFFD
0029
0008
002A
FFFF
001D
001F
FFEC
FFE7
FFE2
002C
FFFD
000A
FFE6
0010
0023
FFF0
FFC8
FFBC
FFE9
0011
003C
001D
0028
0033
0028
FFF0
000A
0015
0008
0017
0012
FFE3
002D
FFC0
0007
FFFE
0015
002F
0033
FFCC
0006
0039
0003
FFCB
FFFC
FFEF
0009
FFFB
0024
0036
0004
FFE5
FFF0
FFF4
FFF7
0009
0020
0002
001F
0004
0001
0015
0013
0037
0012
0014
0003
FFF6
0022
FFFA
0009
0001
000F
001C
000B
FFD2
0006
FFFD
FFE8
FFBC
FFBA
FFF2
001B
FFBE
FFF6
0024
0023
FFCF
FFE5
0009
0015
FF8F
FFB0
FFEA
FFF7
FFA9
FFF5
001B
000B
FFEB
0006
0007
0012
FFBB
FFD9
0006
0001
FFC7
FF8D
0000
0018
0024
004B
0014
FFFD
FFE8
0005
FFFE
FFE3
FFFF
FFF7
FFFE
FFDC
0009
FFFE
0012
0018
FFE9
0014
0007
000F
0002
0003
0024
FFFE
0010
FFFB
0001
0002
FFF5
000E
FFF6
FFFA
FFFA
001D
0036
FFD6
FFFA
FFB5
FFE4
FFF7
FFE7
FFF8
FFF3
002A
FFBE
0001
FFEE
000D
FFDC
0031
000B
0000
0018
FFFA
FFEF
FFF1
FFF4
FFDA
FFF8
FFFA
0005
000B
FFF8
000C
FFF7
0008
0023
0015
FFE5
FFE5
001D
0030
000B
0003
FFDD
002B
0022
FFD7
FFDB
FFF4
FFE6
FFE7
FFD9
000F
0021
FFDD
0004
0005
FFF9
FFFE
0028
0011
FFF0
0005
002C
0027
FFEF
0018
FFFD
0014
0003
0028
0028
FFED
FFE3
000E
0014
0029
FFDE
000D
FFF3
001B
FFC9
FFDA
FFCB
0022
FFC9
FF9A
FFCE
0012
FFF7
FFE2
FFF6
001C
FFAF
FFE2
FFE2
0006
0011
003A
FFFA
FFF3
0008
FFF9
000A
0000
FFCA
FFE5
FFF7
0014
FFF2
FFE2
FFF9
0016
0016
FFF2
0015
001B
0008
FFFA
FFFF
FFF3
FFC8
000F
0019
0003
FFD5
0003
0007
FFEC
0004
FFFE
0000
FFCD
0006
FFFE
FFF9
FFF2
FFF1
001F
0034
0005
FFF4
0012
001F
FFD4
FFCE
FFDA
000F
001E
FFF3
000B
FFCE
FFC9
000D
FFF4
0014
003C
FFDB
FFFB
0031
FFE0
FFBC
FFDB
0011
0005
001A
0009
FFE3
FFB7
0010
002C
004F
0003
FFDC
0030
004B
FFF5
0013
FFCF
FFF0
FFFC
FFEC
FFED
0018
001D
FFFD
FFDC
FFF2
0018
0027
FFF8
0001
0002
FFFE
0006
0015
0045
0023
0012
0003
FFE3
FFB5
000E
FFEE
FFF1
FF6C
FFD1
FFF0
FFF4
FFDC
FFFA
0012
FFDA
000E
001C
FFF8
FFDD
0015
0033
000B
000A
0018
FFE3
002D
001D
FFF9
FFDD
FFFE
FFF9
000B
000C
0029
002F
002A
0003
FFF8
FFFB
FFF2
FFEC
002D
FFF4
FF96
FFB6
FFF1
FFC8
0003
0027
FFED
FFFD
0028
001C
FFFD
0007
000F
000A
FFF7
0027
FFF0
FFDD
0003
000F
0012
0001
0005
FFF2
0040
0017
FFFF
0019
0040
FFD7
000A
0009
0002
FFBF
FFE8
FFDB
FFF4
0001
0002
0019
FFDC
002B
0012
0026
FFFA
000F
0007
FFE9
0015
0003
FFD3
0016
FFBA
FFDF
FFFD
0021
FFEA
0014
0016
FFF7
FFD0
FFCA
FFF3
FFF8
004A
002F
0004
FFF8
FFB0
FFCE
FFF1
0030
FFCC
FFE3
FFF5
0026
FFF1
FFE7
FFFD
FFE3
0015
FFF7
FFF0
0021
FFD5
FFA5
FFE3
FFCE
FFAB
FFF7
FFF4
FFE9
0001
FFDC
002C
0008
001C
FFDC
FFE0
FFFD
0008
FFD3
FFFE
0007
FFCE
0001
0030
0005
0003
FFEA
0010
FFF7
0026
FFE6
000D
0024
FFF9
FFE3
001D
FFA7
0009
0017
0017
FFFA
001D
FFE0
0006
0015
FFFC
000A
FFEA
FFEC
FFDF
0007
FFFF
FFEE
0022
FFF5
FFE4
FFCA
0025
002B
0003
0037
0020
FFFE
FFDB
FFF6
FF95
FFDE
FFF6
003F
FFEC
0000
FFF6
0009
003D
000F
0021
FFF3
FFFA
FFF0
0018
000D
0021
0020
0036
FFA5
003F
FFE2
0000
FFD6
FFEE
FFAC
0007
FFFB
000D
FFBD
FFA0
FFE4
0018
FFF8
FFEB
000D
001F
000D
FFF6
0030
FFF4
000F
FFF3
FFE4
000C
002C
0010
FFEF
0005
FFF5
FFD5
0003
FFEA
0006
FFF1
FFDC
0028
0028
FFF3
001E
000C
0005
0007
0033
001A
001C
003A
FFF2
0017
001B
0025
FFE2
001E
FFF3
0004
001A
FFBC
FFD6
0017
FFFE
0018
0004
0011
FFE5
0019
0007
0000
FFE6
002B
0036
000D
FFF8
0019
FFED
FFF8
001F
FFFB
001C
0003
FFE1
FFD5
000A
FFF0
FFDD
FFE9
0010
0007
0018
0047
001A
FFFF
0008
0011
001D
000D
FFFB
FFE5
FFCC
FFE9
0018
FFE1
FFF7
FFD5
002E
FFE9
FFF2
FFFD
FFE4
002D
0007
FFF9
0032
001B
FFFC
000A
FFE8
FFEE
000A
0030
FFCF
FFC1
0026
002E
FFEC
0008
001A
0016
0044
FFFD
001A
0000
FFB7
FFF2
FFFA
FFEC
FFF5
000F
0013
0025
0032
FFEC
FFFE
0009
FFEA
0006
FFFC
0002
002B
0011
001E
0010
FFEC
0021
0006
0029
0021
FFCC
FFF4
FFC6
FFE5
0011
0006
0021
0021
000A
0007
FFDF
FFD3
0007
FFE6
FFF7
0036
FFC4
0004
0006
0018
FFD0
FFFC
0004
000B
FFC0
FFDF
FFCB
0009
FF97
FFAA
0024
0050
FFFF
0024
0006
000C
FFDF
001A
0006
0008
0000
FFFF
0022
001F
0022
0000
0051
0003
000E
0018
0016
0029
FFEF
000E
0012
0007
FFF1
FFE0
FFFE
0022
FFEE
FFFA
FFFF
FFFA
001B
000F
FFEF
FFE7
FFDF
001F
FFE8
FFEC
FFC7
FFF4
0005
002D
FFF6
FFEA
0021
0029
FFEA
FFFC
FFB4
000A
FFE4
001C
FFDD
FFFF
FFEE
0015
FFDD
001D
0008
FFF4
0039
002D
FFF4
FFED
0009
0013
FFE4
0013
FFF3
0026
FFE8
FFFE
000D
001C
0018
001D
0009
0015
0003
FFAB
FFD9
0015
0005
FFEB
FFCF
0030
0008
FFF8
FFFC
FFC6
FFD1
FFFD
0012
0047
0009
0009
0000
FFED
FFF3
0031
0043
FFFB
FFEB
0016
FFEB
FFD7
002B
FFFF
FFF8
0011
FFCE
0004
0018
FFF4
FFEC
0014
FFFD
0012
FFE0
0006
002F
0003
FFE0
FFFA
FFFC
000A
FFD5
FF96
0003
0005
FFFB
0005
FFEA
FFE5
FF96
0019
FFB7
FFE4
FFC4
003E
0009
0021
0010
0018
001A
FFF6
FFC6
FFE5
FFF5
001F
FFEE
FFDA
FFF8
0039
0027
FFFC
000D
0009
002A
002E
FFFB
FFFD
FFE5
001E
FFF7
FFF4
0001
FFF2
000C
0006
000D
FFF5
FFE2
FFC6
FFF0
000C
FFF8
0009
FFEC
000C
000B
FFFA
0015
0018
000E
FFEB
0004
FFEE
FFC3
0012
FFBD
FFDC
FFF0
FFEA
FFF6
000F
0003
0058
0009
0004
003B
FFF6
FFE6
FFFD
FFFE
0000
0027
0020
0003
FFC9
0005
001F
0008
FFF4
FFFE
000D
FFF5
FFC2
0011
000B
FFFA
FFED
FFCC
FFD3
FFE6
FFDF
001B
FFFF
002E
FFE3
0009
0024
000C
FFC8
0032
001C
0006
FFDD
FFF5
FFBA
FFD1
FFAE
000E
FFB7
0002
FFC7
000E
FFE0
FFEC
0009
001E
FFD7
FFE6
FFF4
FFEE
FFD6
FFF3
FFFF
0045
0006
0022
0017
0022
FFF9
0009
000E
FFFA
002A
0020
0000
0011
0009
FFE6
FFF0
001F
0030
FFED
FFBD
001A
000E
0003
FFE8
0015
FFD1
0007
FFFA
FFD9
FFF9
0017
0017
FFED
FFD0
FFF3
0016
0009
FFFF
0014
0004
0007
0010
FFF3
FFFE
0018
FFF5
FFFD
0019
FFFE
000D
FFF8
FFEA
004D
002B
0014
FFE5
0001
0009
0001
0018
000F
0005
0011
0001
0019
FFD4
0007
FFE5
000D
000E
FFCB
0001
FFBF
000E
0015
FFE5
0007
FFE1
FFDC
FFE6
FFE1
FFF6
FFC9
FFB3
004F
0031
0004
001B
FFF9
0004
000F
000D
000E
0011
000A
001C
0007
0012
0015
0008
0011
0021
0002
0024
FFEC
FFE0
FFF3
002A
0007
002E
0010
0017
004D
0007
000E
001A
0018
0023
0014
FFE9
0013
0008
0016
0020
0027
0026
0035
000C
0009
FFFA
0019
0011
000A
FFEB
FFF2
FFE1
FFE3
FFEE
FFCD
FFFE
000F
000C
0007
0010
0009
FFF6
0004
0013
FFF8
0013
0000
002E
0006
001D
0002
0031
FFE7
FFF6
FFE8
FFFF
FFFD
FFE0
0010
FFF6
0035
FFEF
000F
FFF3
FFD9
FFED
003B
FFFC
0028
0033
FFEF
FFBB
0014
0015
0029
0005
FFEE
FFF8
FFD1
0020
000D
FFFE
FFDD
002D
FFFF
FFE6
FFF2
0011
FFF1
FFD5
FFF3
0037
0047
002F
0008
0003
0020
FFF2
0037
0000
FFD9
FFDD
FFE6
FFD3
0004
FFED
FFDE
FFB1
003C
0005
FFFA
FFDF
0015
000E
FFE5
FFE8
FF9E
FFDE
FFFE
0002
0025
FFF2
0020
001A
0009
0009
FFD8
FFF9
000C
000B
0013
FFFD
FFF8
0008
FFE6
0032
0005
0007
FFED
0032
FFFF
FFF1
0002
FFF3
0016
000E
FFFE
0019
000A
FFFE
FFF9
0029
0002
FFF9
FFE0
0025
002B
FFFE
FFE9
FFE9
002E
0008
0019
000A
FFCB
FFE0
FFD5
FFF5
FFB2
FFCB
FFD6
FFFB
001F
000A
000A
0007
FFE5
0006
000C
FFEA
FFF0
FFF6
FFF5
0001
FFFF
0003
0008
FFF4
FFF6
0003
FFFC
FFEF
FFF8
0003
FFF9
FFFA
0006
FFF6
0011
0003
FFF2
FFF7
FFFD
FFFA
0003
0002
FFF5
FFF3
000D
FFF4
FFF6
0006
FFF9
0004
FFFF
FFF7
FFFB
0009
000C
FFF4
0006
FFFB
FFF0
FFF3
0004
0009
FFF4
FFF7
0007
FFF6
FFF9
0005
FFF1
FFF1
FFFF
FFF7
FFF5
FFF3
0002
000C
0000
0000
0002
0007
0006
0006
0002
FFF4
0001
FFF9
FFF4
FFF8
0004
FFF2
0003
FFF6
FFF3
FFF9
0001
FFFB
FFFE
FFF9
0006
FFF2
000B
000A
FFFE
0009
0000
FFF1
FFFF
0006
FFF5
000A
FFFA
0006
0005
FFF6
FFFE
000A
FFFE
FFFA
FFF6
FFEF
FFEF
FFF8
0009
FFF9
FFFD
0007
0003
000C
FFF0
0006
0009
000A
0008
FFF5
FFFE
FFF8
000A
0001
FFFB
0004
FFEF
FFFB
FFFE
FFF0
FFFE
FFF9
FFF2
FFF5
FFF7
FFF8
FFF1
FFFB
FFFE
FFF5
FFF3
FFF3
FFF5
FFFE
FFF5
FFF5
0004
0005
FFF1
000F
0007
FFF7
FFF7
FFF8
FFFF
000F
FFFC
FFF0
0004
FFF6
0003
FFF0
FFF9
FFFE
000A
0004
FFFB
000B
FFFE
0004
FFFC
FFFF
FFFA
000B
FFF9
FFF2
FFF9
0007
FFF2
0008
0004
FFF3
FFF6
FFF1
FFFA
FFFC
FFF7
FFEF
FFF9
0004
FFF2
FFF3
0004
FFEF
FFFC
0006
FFF1
0001
FFEE
0004
FFEF
0002
0006
0007
0002
0004
0003
FFFA
FFFE
FFF5
FFF6
FFFB
FFF2
FFF5
0000
FFF7
0008
FFF2
0001
FFED
0000
0001
FFF9
FFF7
000A
0008
0007
FFFB
FFF2
0006
0001
0012
FFFB
0001
0003
0007
FFF8
0000
FFF7
FFF6
FFF8
FFFD
FFF2
FFFA
FFF2
FFF1
FFF4
0005
FFFA
FFFE
FFF6
0007
0005
0001
FFF3
FFFA
FFF0
0008
000B
FFF4
0008
0009
FFFC
FFF7
FFF2
000B
FFF7
FFFF
FFF7
0004
FFFD
FFFD
0008
0009
000A
FFF1
0001
FFF2
FFF8
FFF0
FFF0
FFF6
FFFF
FFFA
FFF5
0002
FFF8
0005
FFF4
FFF3
FFF4
0009
FFEF
FFF6
0005
0008
0003
0002
FFF8
FFFA
FFFC
0002
0009
FFF5
FFFF
FFFF
FFF2
FFFB
0007
FFF2
FFEE
0001
0006
000E
FFF3
FFF7
FFF2
0009
0000
0000
FFFA
000A
001F
0012
FFEC
0043
0023
0034
FFFD
FFFB
FFDC
0004
000D
0010
FFDE
0037
0013
FFA6
FFF7
FFD7
0031
0052
FFE1
FFCD
FF91
0026
FFFA
0008
0034
0020
0007
FFE7
FFE3
FFDB
FFEC
FFE4
FFF6
001F
FFDE
0003
FFBF
FFE5
000D
FFFF
FFF8
FFFC
FFF2
000A
0017
FFC2
FFEE
000E
0003
001A
FFEC
FFFD
0011
0016
FFF7
FFDD
FFC6
FFFB
FFDD
0010
FFFC
FFCD
000F
0015
0009
FFE6
FFE8
0004
001C
FFE5
FFF6
001F
0018
FFE6
FFFF
0024
000B
0007
0035
FFE5
0013
FFF4
FFD4
FFE5
0024
0027
FFB2
000E
FFFB
000C
FFBF
0006
FFFD
0003
FFEA
FFD9
FFEC
FFF1
0000
FFF9
FFF6
0030
001F
FFE6
FFDD
FFF6
0042
FFFC
0008
FFEC
FFA2
FFAB
FFFD
0036
FFE0
FFCE
FFD1
003F
001B
0010
0006
0015
0030
0016
FFDA
FFBC
0013
FFEF
FFEA
FF9C
0010
0007
0006
0020
FFFE
FFFB
000E
FFE8
0021
000F
FFF7
FFEF
001D
000F
0012
0004
0032
FFF5
0018
FFDD
FFF2
FFFD
0007
0014
0008
FFE6
0005
FFF8
FF9E
FFD0
FFDC
0011
0008
000F
FFE5
FFEA
FFE7
0011
FFDB
0021
000F
0024
002D
0020
0029
0045
FFF3
FFC9
001D
001A
0028
0007
FFEC
0029
FFF8
0004
FFF5
001A
FFD8
0016
FF6F
FFF7
001D
002B
FFEA
0017
0012
0015
FFE9
0000
FFEE
0013
FFF4
FFEC
0012
FFE8
FFFD
0018
FFD3
FFEA
0002
0007
FFF3
001C
0014
003D
000F
001F
0001
0029
000A
0015
002C
005E
0066
000E
000C
0034
FFFC
FFFE
FFE8
002E
0009
003C
FFF8
FFD6
0023
FFFE
FFC4
FFD3
FFF1
001F
0001
0015
0017
0027
FFED
000B
FFD1
FFEF
0027
0009
0016
FFF4
FFB0
FFC9
FFFF
000C
0010
000A
FFF9
FFF2
FFFE
FFF1
0010
FFF0
0014
FFF3
000F
FFF0
FFE6
001D
0044
001B
FFDE
FFD6
0019
FFA6
0004
0012
FFF2
FFF3
FFEE
002A
FFF4
FFF0
0012
0024
0041
0006
FFCA
0001
000E
FFFE
FFCD
FFFB
001C
FFE4
FFE7
FFF6
FFF9
0005
FFA5
FFB5
FFED
0055
FFF3
FFEC
000D
002A
FFF1
FFEE
FFE2
FF96
FFF8
FFDD
000C
FFEC
FFEF
FFF5
FFFC
FFF7
FFF2
FFFA
FFF3
FFFE
0002
FFFB
0006
FFF4
FFF6
FFFB
FFFA
0005
FFF4
FFFA
0000
FFF4
FFF0
FFF1
0004
0008
FFF2
0005
FFF7
FFFF
FFF4
0001
FFF9
FFFC
0002
FFFC
0004
FFFF
FFF5
0002
FFF9
FFFA
FFF8
FFFD
FFF6
FFF4
FFF7
0004
0008
FFFB
FFFD
FFF1
FFFC
0001
0005
FFFC
FFFB
FFFC
FFF7
0007
FFF6
000D
FFF9
000A
FFFF
FFF8
FFF1
0002
FFF5
FFFD
FFF3
FFF5
FFF9
0004
0007
FFF8
FFF5
FFEE
FFF7
0008
0006
0000
0000
FFFC
0008
FFF0
FFF6
FFF3
FFF8
FFF1
000B
FFF3
FFFA
FFFC
000D
0008
FFF8
000A
FFF8
FFFD
FFF7
0002
0006
0002
0007
FFEF
FFF9
0003
0004
FFF2
FFF1
0002
FFF4
FFF1
000E
FFF9
FFF4
0002
0003
0004
0004
FFFD
0000
0005
0008
0004
FFF9
FFF6
FFF7
0006
0000
FFFB
FFF7
FFF9
FFEF
FFFA
0001
FFF4
0003
FFF6
FFF0
FFEE
FFFC
FFEF
FFFD
000A
0008
FFFA
FFEE
0001
0005
FFF6
FFF2
0004
FFFC
FFF9
FFF3
FFF4
0000
000A
FFFC
FFF1
FFFC
0008
FFFF
FFEE
FFFB
FFF3
FFF9
FFF0
0003
FFFB
0007
FFF3
FFFE
0004
FFF5
FFF9
FFFC
FFEE
FFFD
FFFD
0005
0000
FFF3
0006
FFF1
0009
0008
000A
0007
0005
FFF4
FFF4
0006
FFFA
0004
0005
0005
FFF7
FFFB
0008
FFF4
FFF7
0004
0009
0008
FFF2
FFFB
FFF2
000A
FFFD
FFF7
0004
FFF6
FFF5
FFF1
FFFF
FFF8
FFF5
FFFE
FFFB
0004
FFF7
FFFC
FFF4
FFF1
FFFA
0000
FFF9
FFFE
FFF6
0003
FFF9
0000
0008
FFFA
FFFB
FFFC
0007
0008
0002
FFF9
FFFA
FFF9
0007
0000
FFF5
FFF8
0000
0001
FFFB
FFFB
FFFD
FFFC
FFEF
FFEF
FFF0
FFEE
FFFA
FFFC
FFF4
FFFB
000A
0007
0000
0007
FFFA
0008
FFFB
FFF6
FFF8
0007
0002
FFEF
0000
FFFF
FFF7
FFF6
FFEE
0000
FFF9
0005
0000
0009
0003
FFFA
FFFE
FFF8
FFF5
FFF0
FFF8
FFFE
000A
FFFF
FFF0
0004
FFFF
FFF2
0002
0001
0009
FFFD
FFEF
FFEE
FFF8
FFFE
FFF6
FFF5
000A
FFF8
0009
FFF6
0001
FFF9
FFF0
FFF5
FFF1
000A
FFF2
FFFE
FFF6
0017
FFFB
FFF9
001F
FFD4
0030
000B
FFD2
000B
0010
0028
FFE5
FFF1
0009
0030
0021
FFE9
001B
0004
FFDA
FFEB
0016
FFE1
0011
FFF9
FFEB
001B
FFE6
001B
FFE0
FFC2
FFDF
0001
FFFF
FFF7
0007
FFFB
FFEE
FFD5
000A
0000
FFE6
0000
0009
FFC2
FFB8
FFE2
FFE1
0016
0018
FFF4
0029
FFCA
FFE1
FFED
0002
FFDD
FFE6
FFE8
0008
FFFC
FFED
FFB8
FFCE
FFF6
FFE2
FFF6
0052
000E
000B
FFFB
0006
FFF5
FFE0
FFF2
000F
FFF1
0000
0008
000B
0015
0003
FFF9
0006
003E
0012
FFDE
000D
FFFE
0025
001A
FFFD
003B
002A
001F
FFF6
0007
0016
000D
0001
0008
000E
0030
0013
0006
FFE0
FFFC
FFE8
FFC2
FFD4
FFB6
FFEE
FFF2
001D
0026
FFEC
0049
001D
0015
0003
FFDD
FFEF
FFF8
000F
0013
FFF9
FFF8
0015
000E
FFFE
000E
000D
0007
0009
0014
0002
0001
0007
0007
FFDC
001C
0010
0018
0005
FFE5
FFCC
FFFD
FFEF
0027
000B
0001
0006
0019
000E
002B
000C
FFEF
FFF3
FFD6
FFF0
000A
FFF0
FFCE
FFEE
002A
0018
0022
FFE1
FFDE
FFD6
FFE7
FFE4
FFF0
FFE2
FFCC
FFBD
FFEF
FFFB
FFF9
0038
FFF0
FFF5
FFFA
FFFE
FFFE
0021
000A
FFE7
000A
001F
002C
FFCB
001C
FFEC
FFDC
FFFF
FFE8
FFE9
FFC7
000F
FFEB
FFD1
FFF7
FFFB
FFDA
FFF1
000E
0012
0037
FFFC
FFEA
000D
002C
FFC8
FFF5
0009
0000
FFEC
000D
FFD1
0032
001B
0023
FFEB
FFF9
FFE0
FFE3
FFEC
FFDE
FFF5
000D
000D
0030
0007
000C
000B
0017
FFEC
000F
FFE0
0023
000A
0006
FFFA
0027
0015
0039
FFF3
0000
0010
000A
FFDD
FFC7
FFE5
0000
FFAA
0038
0009
0038
0024
000E
FFF2
000C
001C
0025
000F
FFFC
0010
FFE2
0002
0025
FFF2
001F
FFE2
FFBB
000F
FFF5
FFE3
0008
0035
FFF2
FFC9
FFCC
0009
FFF6
FFD7
0014
0009
000B
0012
FFF3
FFF5
FFF9
FFEC
FFF0
0028
FFE8
FFE3
FFDB
0020
FFEA
0002
FFDD
FFFF
0008
0012
0001
0000
001B
FFF7
002D
002B
0003
FFB7
FFFF
0024
FFE8
FFDE
FFFC
FFFE
FFF0
0007
0020
FFF1
FFE5
FFC9
000E
0003
FFD7
0010
FFDE
FFC4
0026
000D
FFEC
FFD6
000A
FFE3
0016
FF96
0006
FFD6
FFFE
FFED
FFE5
FFCF
FFF1
FFDB
FFEC
0008
FFFB
FFDD
0009
0013
0007
FFFF
FFFA
0015
0006
FFD7
FFC8
000D
FFEA
FFB9
FFE2
0027
0049
0057
FFEF
001D
FFE9
FFE0
0004
FFEA
0007
FFF7
FFCA
FFCD
FFC7
FFBF
0016
FFF9
0041
0047
FFF9
0010
0004
FFE2
0019
000C
002A
FFF7
000C
0028
0007
FFDA
FFFB
FFFC
FFD7
FFF6
0024
FFF7
0023
000E
0017
0007
0012
000B
001A
FFF2
FFE7
FFF0
FFEF
FFD7
0007
0038
FFCF
0017
001C
0020
FFBA
0009
FFE1
0004
FFEB
FFD8
0004
0008
0016
003D
0019
003B
FFEE
002D
FFFF
FFDA
FFEF
0017
FFFF
FFE3
FFE9
FFE4
FFF5
FFF5
0024
FFFC
FFD0
FFFC
FFEC
FFFA
002F
FFFA
FFEB
0033
0000
FFED
FFE6
003D
FFF0
0044
0002
FFEE
0016
0027
FFF1
FFD0
FFE9
FFFD
FFF5
FFFF
0002
001A
002C
000A
FFFB
000C
000B
0008
0006
0049
000F
FFFD
0016
FFD2
0002
000E
0003
FFE6
0005
FFEE
FFE5
0002
FFE2
0032
FFE7
FFE6
FFD5
FFE3
FFFE
FFD7
0008
FFE8
FFE0
003E
002A
FFFC
FFED
FFF6
0018
0012
0014
0044
0029
0006
0018
FFC0
FFED
0008
0019
FF9A
0016
FFD6
0010
FF99
FFA1
FFEF
FFEC
0015
FFB3
0039
0024
FFE4
000F
0016
FFFD
0005
FFF5
000E
0015
FFFF
FFF4
0014
000A
0015
FFD4
FFF0
002A
FFFB
FFE0
002F
FFFE
0001
FFF4
000E
FFE8
000B
FFEC
FFE6
FFFE
0004
0003
0004
0002
FFFE
FFC5
FFDB
0002
FFD8
FFDA
FFD3
FFF3
FFEB
FFFE
FFE4
000C
0022
0021
FFF7
FFD5
FFEF
FFE3
0025
FFF0
FFEC
0031
FFEF
FFF2
FFED
FFD9
FFF9
0016
FFE8
0018
0033
000D
0006
0025
001B
0018
001D
0015
002C
0017
0012
0002
0026
FFE7
001E
0004
0011
0007
FFF2
0012
0018
001A
0020
FFFF
0011
0033
0002
FFF2
0022
0022
FFF8
0024
FFF8
FFF6
FFDD
FFEC
0016
FFED
FFD2
0001
000C
FFDD
FFB2
FFE2
FFEE
FFD4
FF9F
0000
0007
0015
0009
FFF8
FFC7
0001
FFFA
0019
FFBF
FFFE
FFDF
001A
FFEA
0003
001F
000B
0018
0014
FFBF
0009
FFFA
002A
0001
FFED
000C
000F
0010
0006
0016
FFE2
0025
FFE1
000F
001D
FFF9
000E
000A
FFF4
0021
0009
000A
0014
0015
FFDB
FFCC
FFD9
FFD9
FFEE
0003
000A
000C
0014
0004
FFFE
FFA1
001A
0011
FFFC
0014
0017
0006
0029
0015
FFD8
FFF2
0016
001D
FFE4
FFFE
0010
0011
FFFE
0005
0006
0032
0012
FFDE
0007
FFFA
FFB1
FFDC
FFED
FFFF
FFF9
FFFB
000A
0008
0016
FFF7
0019
FFFB
0039
FFFC
FFCB
FFAD
0010
FFF5
FFCB
0004
0008
FFF1
FFFF
FFEE
0016
002B
0014
FFF6
001E
0018
FFDA
FFFD
0021
0020
002B
0027
FFEA
0003
001E
0027
FFBE
0001
001B
FFE9
FFFA
0009
FFF6
0013
FFBC
FFF5
FFFC
002C
FFEC
FF9D
0000
FFEF
FFF9
FFFE
0009
FFED
001E
0005
FFF4
0001
FFB6
FFF9
0011
FFD8
FFC2
FFF6
0014
FFEA
FFDF
FFB4
0003
FFF0
0026
0006
FFEB
FFF1
FFDA
FFFB
0021
0013
FFB4
FFE9
FFF3
002D
FFFC
FFFA
0010
0012
0011
0017
0024
FFED
FFDC
FFF5
FFD1
000F
FFCC
0006
FFF3
002E
FFFD
0004
0000
FFE1
0009
FFFB
0001
FFD9
FFCF
0006
0011
FFF0
002F
0021
FFF1
0006
0020
FFEA
FFDE
0023
0019
0015
FFDF
0004
FFB5
FFCC
FFE0
001F
FFC4
FFEE
0001
FFFB
0003
FFFA
0023
FFF9
0016
FFEE
0001
FFD1
FFE8
FFFB
FFEB
FFDD
FFF5
001C
FFE1
002A
FFFC
FFC6
0013
0006
000B
0016
FFDE
FFE9
FFDA
FFFD
0008
000A
004D
001D
0000
FFF6
001E
0009
0003
FFFC
0003
0001
FFEF
0012
FFF4
0011
0002
0023
0014
000F
FFF3
002E
000F
FFF5
000F
0034
FFF2
FFFE
0011
0017
FFCC
FFE0
FFF3
FFFC
FFEB
0020
0000
0003
000C
0012
000B
000B
FFEA
0002
002C
0006
FFF2
FFE2
FFED
0002
FFBE
0000
0015
000A
FFFC
FFED
FFE7
0024
001A
FFF0
000F
0008
FFFE
0019
0014
0007
0003
002A
FFF9
FFF1
0002
FFE9
FFCF
000C
000C
001A
001C
001C
FFF1
FFF2
0008
FFF4
FFFB
FFFE
FFF9
FFF5
FFFD
FFF9
0003
0008
0005
FFF6
FFFE
FFFF
0003
FFF5
FFFD
FFFA
FFEB
FFE9
FFFB
000A
0005
FFFB
FFFC
0009
FFF3
0007
FFF4
FFF8
FFF5
0001
FFF8
FFF5
FFF2
0008
0007
FFF6
FFF7
000B
FFFE
000B
000C
0004
0004
0006
FFEF
FFF8
0003
FFF5
FFFB
0008
FFF8
FFF3
000C
FFFB
FFF2
FFFD
0007
FFF5
FFF4
FFFF
0007
FFFC
0007
000B
0008
0008
FFFC
FFF6
000E
FFFC
FFFF
FFFA
0001
FFF9
FFFE
000D
0004
FFFE
0001
FFFF
FFFC
FFF7
0009
FFFD
FFF3
0006
FFFC
0003
FFF3
FFF6
000C
FFFF
0007
0002
0002
FFFE
FFF3
000A
FFF3
FFF4
0007
FFFC
0007
0006
0002
FFFF
0008
FFF2
FFEE
FFFC
FFFD
0001
FFFC
FFF7
FFFA
FFED
FFF6
0000
FFF2
FFFD
FFF2
0005
FFFA
0008
FFF2
FFFF
0001
FFFC
FFFD
FFF9
FFFA
FFF6
0000
000C
0009
0007
0005
0000
FFF5
0003
FFFF
FFF4
FFF2
0007
0002
0007
FFF9
FFF0
0008
0004
FFF8
FFF3
FFF5
0002
0004
0004
0007
FFFA
0008
FFF5
FFFB
FFFF
0009
0009
0008
0008
0004
0001
000B
FFF6
FFF6
FFF9
FFF5
FFFD
FFF4
FFFA
000D
0003
FFFD
FFFC
0005
FFF3
0009
0006
000B
0002
FFF8
0008
FFF5
FFF8
0003
0003
FFFB
FFF8
000A
FFF5
0002
FFFC
0003
0009
0004
000B
FFF4
FFFE
FFF5
FFFE
0004
FFF3
FFF8
000B
FFFC
FFF6
FFF6
FFF6
FFF2
000A
FFFE
0005
FFFE
0003
FFF2
FFF2
0009
FFF7
FFF6
FFF1
0008
0008
FFF4
FFFD
0008
0003
FFF9
FFF6
FFF5
000E
0002
0009
FFF3
FFFB
FFF7
FFFE
0007
0001
FFFC
0007
FFFA
0000
0008
FFF2
0003
0007
0003
FFF5
FFEF
FFF7
FFF1
FFF2
0007
FFFB
FFF3
FFF2
FFF4
FFF0
000B
FFF4
FFF7
0003
0001
0001
FFFC
0006
FFF1
FFF4
000A
000A
FFFB
FFFA
FFEF
000C
FFF1
FFFC
FFFC
FFF0
FFF8
0009
FFFA
FFF6
FFFB
FFFC
FFFE
FFFD
000B
0002
0001
0006
000B
0005
000A
FFF8
FFF8
0001
FFFB
000B
FFF9
FFF6
0006
FFF5
FFFB
0000
0004
0005
0006
FFFF
0002
FFF6
001B
FFF8
FFED
0006
0007
0002
FFFC
FFF2
FFC7
FFD5
FFFE
0006
FFCE
FFF5
FFDD
FFD2
000C
0019
0003
FFFA
FFEB
FFFE
FFEA
0000
FFED
0010
004F
0022
0011
0029
002F
0027
002C
0020
002F
0015
FFBD
003C
0030
0027
FFF7
FFFA
0016
FFE7
0006
FFE7
FFB7
FF39
FFEA
0018
FFFD
0008
0000
0000
FFD6
0016
FFD4
FFDF
FFEB
000E
002C
002B
0004
FFA0
0008
0018
0008
FFAC
FFF4
FFE0
0021
FFFC
FFDF
0015
0020
0008
FFD3
0011
0014
002B
FFD7
FFD4
FFFF
FFF9
000D
FFD3
002D
FFF2
FF94
FFE1
001C
0001
0059
0043
002A
FFF4
FFCA
0010
FFF3
001F
FFE8
FFFB
FFD8
0029
0027
FFD9
FFCC
FFEC
FFFC
FFEA
FFA5
FFD7
0005
0006
0002
000C
FFE5
0019
0015
000D
000A
0025
0005
FFBB
0004
0025
FFED
FFD9
001E
000F
0023
0013
FFCB
FFDD
FFFF
0020
FFAE
FFF4
FFF6
FFD0
FFDA
0019
FFF8
FFDE
0018
FFD2
FFE9
FFAB
FFE0
FFED
001A
FFF2
0011
FFCD
001C
0007
FFBD
FFB8
FFCC
FFD4
001F
0044
000F
0004
0000
0018
002B
FFED
000A
FFD8
FFFB
FFB2
FFAE
FFE2
FFCA
FFE5
FFEE
FFE3
FFE8
0006
FFE4
0018
FFD0
FFF9
FFBC
FFF3
0006
0016
FFDC
0000
FFE4
FFCA
0021
0010
0028
FFDB
FFD6
FFF8
FFFE
0011
0004
FFF6
001B
0011
FFE0
FFE5
FFC7
FFBA
0003
0005
FFC0
0024
0000
FFF3
FFD5
FFFF
FFCC
0009
0007
0024
FFBC
0008
0015
0026
FFF6
FFFF
FFE4
FFEE
FFE8
FFCC
FFD4
0027
FFEB
FFFE
0053
001C
0014
0040
FFED
000D
000D
000E
0026
001B
0012
0012
FFFB
000F
FFED
0012
FFEB
0011
0000
FFCF
FFBC
FF7E
FFFC
0015
0024
FFF4
FFDE
0017
000B
FFEB
FFF5
0006
FFF3
FFB3
FFB1
FF7D
FF89
FF97
0029
FFF8
FFEB
FFC4
0010
FFF0
0015
FFBF
FFFB
0018
0013
FFE9
FFFF
0024
0032
0015
FFE6
0007
FFE7
FFD2
000A
0004
002E
FFF0
FFE3
FFE2
FFF7
0000
FF8D
FFEB
000E
0032
0014
FFF0
0004
FFD8
FFF6
0033
0025
FFEA
0013
0017
0018
FFFC
FFE8
FFCD
FFCC
FFB3
0016
0018
0022
003E
FFB8
0017
003E
0010
FFEC
FFF6
0011
0000
FFEA
FFEA
FFF5
FFE1
FFDC
0053
001A
0047
0055
0045
FFF5
0015
002F
0012
002C
FFFF
0012
000C
0008
0008
0014
0015
0014
002E
0004
0021
FFFF
FFDE
001E
FFEB
FFEA
0037
FFE9
FFDA
FFB1
FFB6
FFF8
FFE2
FFFE
001B
FFC7
FFE0
0031
002C
000A
001D
000E
0003
000B
004B
FFDF
FFF4
FFEC
FFE3
0034
004C
000C
0013
FFE7
000C
000E
000B
FFF8
000A
FFF8
0005
0009
0009
FFE5
0016
0000
0005
0028
001D
FFF3
0005
FFFE
0008
FFFD
0001
003D
001C
FFF9
FFE5
0029
001E
FFF1
FFEE
004F
0026
001A
0015
FFF5
FFFB
FFEC
FFE3
FFE5
FF93
FFA8
FFC8
0032
0036
0028
0011
003B
001E
0031
0004
FFB7
FFD6
FFF3
0017
FFD0
FFDE
000A
002B
FFFF
000E
001B
FFEB
004C
FFDE
000C
000E
002E
FFE9
FFD0
FFD2
FFF8
0003
0003
FFD2
FFF4
0010
0023
0003
FFF3
0041
000B
FFF5
FFC2
0009
0009
FFF7
FFF5
000D
FFD1
FFC2
0013
0024
FFC9
FFA8
FFF1
FFF8
0005
FFD9
FFC1
FFEF
001D
0016
FFED
FFD0
FFB4
FFD6
FFD9
FFF6
FFFB
0023
FFE1
FFFC
0017
FFEC
FFEB
0001
FFFE
FFD6
0023
0015
0023
FF9F
FFFE
FFE7
FFE5
0002
0000
0009
FFEA
0030
FFD2
FFE1
0005
0018
FFDF
FFFA
000A
002C
000A
FFEB
0012
FFF2
000E
FFD4
FFF4
0036
0009
FFFD
0000
FFD9
001B
000B
0010
FFCB
FFED
0001
0015
0022
FFF6
001E
0005
000D
FFEF
0018
0033
FFFD
FFF5
001E
0028
FFF4
0021
0011
0016
0002
0027
002D
0021
0018
0016
0002
FFF9
0009
FFDE
FFE8
0000
FFC6
0043
000E
0009
FFFA
0003
FFD2
FFF8
0012
FFDD
FFDE
000D
0011
FFCC
FFC9
FFF0
FFC6
FFE3
FFC4
FFF0
FFF5
FFCF
FFF9
0018
FFFF
000D
000B
FFF1
FFE2
001A
0009
001C
001A
FFAE
FFD8
FFDF
0020
FFEB
FFF4
0018
0036
FFE6
FFF8
FFF5
0014
0002
0012
FFED
FFFA
001A
0029
FFF8
FFE9
0051
0011
000E
0028
FFF6
FFCA
FFFB
0031
FFE1
FFF6
0001
0025
FFF1
0001
0014
FFFB
0019
0015
FFAA
FFDD
0024
FFC8
FFCF
FFCC
FFFD
FFE4
FFE3
FFEE
FFFE
0033
FFB1
0007
FFF5
FFE7
FFF0
0034
FFF4
FFFF
000E
0029
FFE4
FFC9
000D
007A
002B
0016
0000
FFEB
0023
0002
0011
FFED
FFEF
0002
0013
0000
0031
003D
001B
0010
FFF9
000B
0024
0010
0007
0014
FFFF
0002
FFFD
0005
0025
FFF9
0015
003B
0005
FFF5
0016
002D
0018
0018
0007
001A
FFFC
FFE5
0002
FFF1
FFEA
FFE7
FFC8
0011
0002
0004
0003
0015
FFFC
FFD9
0011
0018
FFF6
FFF1
FFEA
FFE4
FFF4
002F
FFCE
0008
0039
0003
FFF1
FFE6
FFF7
FFE6
FFF4
0017
0016
FFE5
0032
000D
0027
0014
002A
FFDE
000D
FFF8
FFEE
001E
0030
0036
FFD9
FFE3
001B
004E
FFE0
FFE4
001D
FFE0
FFE5
FFFB
000F
FFCB
0010
FFF1
FFF2
0004
0010
0015
0018
0035
FFFA
0000
0009
0002
0005
FFFB
FFA3
FF95
0010
0030
FFEE
FFE5
FFD4
FFF4
FFC8
0000
FFDE
0024
000E
001B
0013
0007
000E
001E
FFDE
0004
FFFE
0052
FFEE
FFF2
FFF5
0052
FFEF
FFED
0002
0004
0022
FFD6
FFCE
FFFD
FFED
FFEC
0002
FFC1
000C
FFEC
FFFE
FFEB
0001
000E
002B
0044
0005
FFDE
0006
0044
FFD0
0006
0006
0017
FFD1
FFE5
0032
0009
FFD4
FFFC
0004
FFF1
001B
FFF3
000A
0000
0025
FFF5
FFFF
0042
0010
FFCA
0004
001E
0020
FFCA
0015
0015
FFFE
FFD1
FFED
001E
0018
002C
FFB6
FFE4
0029
0023
FFF3
FFAE
FFF0
0004
0003
FFE0
FFEE
000B
001C
004F
FFE6
000A
000B
0015
FFD9
000B
001C
0029
FFFD
FFEF
FFEA
0003
000C
FFEB
FFD1
FFC6
FFEF
FFEE
FFD5
0008
FFE8
0007
0015
FFDD
0002
001C
0008
FFC0
000B
FFFD
FFD3
FF97
001E
0009
002D
FFED
0002
0015
001C
FFEB
0018
FFFB
0015
FFD5
FFF2
0015
0041
0011
0001
000C
000B
0007
FFFB
000F
0010
FFD3
000E
FFFD
0017
FFEC
FFF4
0008
FFFB
FFFD
FFF5
0017
FFE8
FFF7
FFC8
FFC9
0012
0006
FFDF
FFFC
0029
FFCF
000F
0002
FFDE
FFC0
FFF7
FFFC
FFC0
FFF9
FFFC
0006
FFF8
FFE6
001C
0027
0024
001B
FF90
FFF4
0029
0014
FFF0
FFB7
0011
0034
0016
000A
FFFB
FFD0
FFEF
FFE0
0015
FFF8
0034
0033
FFFD
FFCE
0018
0001
FFED
FFFE
001D
0005
FFDB
FFED
0010
FFF7
FFE6
FFFA
FFE8
FFD7
FFA7
FF8D
000F
0014
FFE5
0013
FFE8
0006
FFFC
000A
001A
FFD8
FFEC
FFF8
0005
FFA2
FFAB
FFA6
FFF2
FFF1
FFFA
001F
000B
0003
000B
000D
000E
FFF4
FFF9
0005
0010
FFFD
002C
000A
0020
0010
0009
0006
0030
0022
0000
001B
002C
0004
0013
000B
0030
002C
0035
0029
0022
000C
0012
FFEA
001D
FFF1
0015
FFFB
0003
0009
FFE1
FFE3
FFD7
FFDB
FF97
FFBD
0015
FFCC
FFB7
FFD2
FFEA
FFE8
FFFE
FFE2
FFF7
0018
FFE6
FFED
0028
0028
0016
001F
0038
0022
0009
FFC2
000A
FFE1
0002
FFF1
FFFA
FFD1
000D
0007
FFF6
002D
0011
003D
001A
002C
0010
FFED
0030
001D
0003
0011
0011
FFE6
FFE9
0029
0000
FFF8
FFFC
FFD8
FFEE
000C
0008
FFE2
FFFD
0023
000E
FFE4
0009
FFE0
0004
FFCC
0012
FFF6
FFC7
FFC8
001D
001A
0009
FFF7
0010
000E
0022
FFEE
0004
FFF7
003A
FFF2
FFE1
0006
0048
0036
FFF8
FFED
0022
0048
0013
FFEE
FFEE
FFE2
FFEA
FFDE
0017
FFED
001C
FFE3
0007
FFC0
FFF4
FFF7
FFFF
FFEE
0002
003D
003D
FFE4
0028
002A
FFEE
FFF5
FFEE
0017
000C
FFF9
001D
0029
002A
000D
0029
0024
0011
0006
0002
003D
003D
0002
FFF6
FFF3
0003
000E
0008
0019
000C
0006
FFD9
FFFB
FFF5
FFEC
FFF5
0001
FFFD
0008
FFE2
FFF2
FFF9
FF92
FFE2
0011
0027
000B
0000
FFEA
FFFC
0011
0002
000B
FFFD
FFEA
FFF0
FFCA
FFBD
FFFB
FFD5
FFE5
FFF0
0032
FFF3
FFFD
FFEF
000E
0015
0011
FFE8
0007
0007
FFE8
000B
FFF9
FFD9
FFEE
0007
0046
000A
0011
0012
0010
0015
0033
FFCE
0008
FFF4
FFD9
FFF5
0004
0005
0008
0031
0047
FFE4
FFD0
FFD5
000E
0018
FFE5
0000
000F
003E
0011
0009
FFF1
0008
FFFD
FFF8
003C
0010
0007
FFF0
0010
FFF8
0012
FFD2
002E
FFE5
001D
0011
000C
FFF5
0017
000B
0016
FFBE
FFF4
FFD6
0028
FFD6
FFFE
000A
0013
FFEB
FFDA
FFC9
FFEB
FFEA
0012
000C
0031
FFEC
000F
FFE3
FFD7
FFE9
FFF3
0008
FFF1
FFF6
FFEC
FFD9
0008
0002
FFF1
0002
0028
FFF8
000C
0033
003E
FFDE
FFB1
FFE1
0004
FF83
FFD7
FFCB
FFCE
002E
0001
0002
FFEF
FFF2
FFFD
FFF5
FFD9
0009
FFFE
0008
FFFA
FFFA
0031
FFFA
0001
003F
FFFF
0008
0008
000A
000A
0017
0005
FFE8
000B
0007
0002
FFE1
0002
0009
FFE9
0014
0009
0007
0004
FFEA
FFF6
000A
001E
FFA1
FFD1
FFF6
FFFD
FFD8
FFCA
FFDC
FFEC
FFED
FFD4
FFF2
FFF7
FFEC
FFDE
FFE4
0011
0011
000A
0011
0035
0003
0003
FFF5
FFF1
FFFB
FFE0
FFBC
000B
0023
FFD7
FFF2
0020
FFFF
FFF8
0008
0009
0012
0029
001E
0008
004D
0031
FFF4
FFFC
003F
FFF9
FFE5
FFEF
FFFA
FFF3
FFE5
0019
0013
0018
0006
0002
FFAF
FFC9
FFCC
FFDB
FFE8
0001
FFEE
FFCE
FFEB
FFF2
0002
0009
000E
0022
002C
0007
002C
0029
000A
0012
000C
0016
0025
FFFD
000D
001B
0000
002F
0013
0010
FFE3
FFDE
FFC1
FFC6
FFED
0003
0007
0037
000E
0008
FFE7
000A
0021
0011
FFE7
FFDD
FFE5
FFE9
0009
FFBA
FFB2
0022
FFF3
FFD2
0005
0004
003F
0031
FFE5
000D
000E
0016
0005
0014
0035
0046
002F
0033
0009
0008
000D
FFE9
FFC4
001E
000B
FFEF
FFF2
002B
000A
0003
FFD8
FFC7
FFE2
0014
FFF6
0031
0012
003F
FFA5
FFD6
FFE2
0005
FFDC
FFEC
FFFD
FFF5
FFD7
FFEA
000F
FFE6
000F
0005
0007
FFF6
FFE0
FFF2
000E
FFF7
FFE0
FFF0
0006
0020
0011
002E
003A
0041
FFEC
FFE3
0011
FFFF
FFF2
FFFF
0007
0005
FFFD
000D
FFF9
FFE0
0034
0016
0018
FFEE
FFF3
FFF0
0013
0012
FFFD
0012
001B
FFEE
FFED
0020
FFFB
0003
FFAB
FFD6
FFF0
000D
0002
0008
0017
0017
0007
000F
0013
0011
FFEF
FFF8
FFFA
000B
0014
0014
FFF7
FFEC
0015
003C
FFDF
FFD9
000A
FFFA
FFF5
FFC7
FFE2
0025
FFFA
FFD7
0010
FFED
FFD0
FFD4
FFD0
FFC0
FFE9
0019
FFD2
FFDE
0028
0020
0005
FFC0
FFFB
FFEC
0000
FFE2
FFFF
0001
FFEA
003E
0025
003A
0022
FFF9
FFFB
FFEF
FFC8
FFCB
FFEE
FFEE
001F
000F
0019
FFFE
FFF2
FFEE
0012
FFD9
FFF0
FFFE
FFDC
FFFB
0024
FFFD
FFCE
FFCD
FFE2
0007
FFE7
FFC7
001D
0013
0028
FFFC
FFEE
0007
0011
FFF8
FFFC
0014
FFEF
FFE2
001D
FFDD
002E
0007
FFF1
000B
0017
FFE5
0030
0040
0013
FFFC
001E
0019
FFED
0007
FFC6
001C
001C
0016
0003
0017
0007
0001
0004
FFE0
FFB9
FFDC
FFCD
FFEB
FFCF
000A
FFE9
FFEE
FFE7
000C
FFEE
0008
0000
0009
0034
002E
0017
FFE0
0023
0001
0001
001F
FFF5
0015
FFFB
0007
FFFC
0016
000B
0001
0010
FFFC
FFFD
FFF6
0010
0008
000E
FFEE
FFC7
FFC1
FFBC
FFEC
0009
FFE9
000C
FFE8
003A
001C
004A
000F
000E
000B
FFE6
0008
