0008
0003
0006
FFFD
000B
0013
FFEF
0004
FFDC
FFFB
FFFA
FFEF
FFF2
0013
0000
0000
FFF5
FFDE
FFE4
0005
000B
0005
0010
FFDE
FFF4
FFF1
FFE3
FFF6
FFEE
FFE9
FFD9
0015
0015
FFF3
001E
FFF3
FFF0
001C
0011
0024
0010
0005
FFD0
FFE9
000E
0006
FFF5
FFFA
001A
FFEF
0013
FFF1
0010
FFEE
0012
FFFD
0004
FFE7
FFFF
FFE6
FFD7
0000
001B
0014
FFFA
000E
0012
0006
FFE1
FFF3
0003
FFF1
0012
0011
0007
FFF0
FFFA
000D
FFDE
FFF9
FFEB
0000
0000
0001
0004
FFEB
0013
0003
FFF1
FFD6
0027
FFE9
FFF1
000E
FFEC
FFEC
FFF7
0007
FFFF
0002
0003
0000
000C
0003
FFE5
0006
FFE7
FFF0
001D
FFF1
FFF4
FFE7
FFEF
000E
000B
001D
FFFF
0007
FFFD
0003
FFD7
FFD5
FFE1
FFFB
FFFB
FFDA
FFF6
0005
0032
000F
0007
002F
0023
000B
FFF2
FFFF
0023
FFF7
FFF4
0032
FFEA
FFF3
FFDE
002B
FFD5
002A
FFF4
0045
FFDA
0039
FFEC
000E
0027
FFFE
0001
002A
FFFB
FF92
001C
FFFB
0014
0009
001B
0009
FFF8
FFAD
FFAD
0009
0017
FFFA
0029
0001
FFD7
FFE1
000B
0038
0009
FFD5
FFF6
FFFC
FFF6
0001
FFC0
FFC2
0005
004E
FFC4
0036
0038
003A
0011
000F
FFF5
FFF9
FFF6
001E
FF9E
FFEC
FFD7
0018
FFF9
0000
FFD7
0005
0031
001C
0006
FFF3
0021
001E
FFEF
FFF4
FFFA
FFEB
0006
FFE2
FFF7
000C
0012
000E
FFE5
0006
001F
FFF7
FFF8
FFDF
0006
FFE1
FF93
FFF9
FFE6
0014
FFF5
FFF0
FFD2
0013
002F
FFFD
FFBF
FFE4
0007
0027
FFEE
0025
0017
FFDD
001B
FFEF
002C
000B
FFE8
FFF2
0028
0004
FFDE
FFFB
0012
FFF4
FFF7
FFF9
FFE7
0001
0006
0008
0001
FFE6
0009
FFF0
0002
FFF4
0006
FFF7
0001
FFFB
0001
FFFF
FFE9
FFEE
FFF2
FFE9
0016
000A
FFFB
0000
FFEF
FFE2
FFEB
000B
FFF5
FFF9
FFE3
000E
FFF0
000C
FFE4
FFEB
FFEF
0005
0008
FFFB
FFFF
FFEF
FFFE
FFEE
FFFC
FFFE
FFFC
0002
FFED
FFF3
FFF8
FFF3
FFF3
FFE4
FFF2
FFFD
FFFE
FFFB
FFF2
FFF9
FFF3
FFEC
0009
0005
000B
FFF0
FFF2
FFF6
0003
0008
FFFE
0006
0015
FFEC
0009
FFFF
000B
0004
0014
FFFF
000D
FFEB
0014
FFEC
0000
0001
0006
FFF6
0013
FFF4
FFF0
0012
0010
0000
FFEA
000D
FFF5
0001
0006
FFE6
FFFF
000B
FFFE
FFF1
0006
FFFC
0001
FFFB
000A
0003
000F
0004
FFE9
FFF7
000D
FFF2
0001
FFFA
FFEA
FFFD
FFFC
FFFD
FFF7
FFE9
002C
FFF8
0028
FFF0
000F
0002
0007
0041
FFFF
0026
0014
0008
FFF1
0016
000F
FFBD
0017
002E
FFC3
FFDF
FFEB
FFC5
0014
000A
0016
FFF7
FFF7
002D
FFFB
000D
0014
001C
FFFC
FFF7
0005
0008
FFFF
FFDD
000D
0024
FFFF
0032
FFC5
FFF0
002D
0007
FFD1
FFF1
0030
0007
FFFA
0031
FFFA
FFF8
002D
0011
FFFA
FFF9
FFDF
0026
FFE4
0028
0017
000C
FFF1
FFE7
000D
0013
0002
FFCB
001F
FFF7
000A
FFF1
FFEF
0001
FFF5
FFE6
FFFF
0006
FF9E
0044
0003
FFE7
0006
000E
0012
FFEE
FFF6
FFF0
0007
003E
0014
FFFB
0018
0018
0009
005F
0006
0015
FFF2
0043
000F
FFE5
FFFB
FFFE
0019
0008
0039
FFE9
FFED
FFF9
0023
0022
FFFC
0044
0032
FFF9
FFF2
FFF7
FFD1
002C
FFE4
FFF7
FFE5
001B
0001
FFE6
FFF5
FFF8
FFF6
FFDD
FFEC
0005
0015
FFBB
000B
FFFF
FFD5
FFE1
0015
FFDD
FFF8
0044
002F
FFFF
001B
FFB9
FFFE
FFD3
FFF3
001C
FFC2
FFF2
0011
003D
FFF8
FFE8
FFF2
FFEB
001C
0013
FFDD
FFFF
0014
FFCA
0034
FFC1
FFFD
0003
FFEA
0016
000E
FFF7
002D
FF97
FFFD
000D
0017
000E
0003
FFFB
0031
0001
000C
0044
FFFF
FFB0
0000
0020
001C
FFE8
FFE6
FFEC
0009
FFEC
0014
FFAF
0009
0033
FFF6
FFF3
FFEE
FFFE
FFE9
0006
0018
0015
FFD2
0002
FFFE
FFF9
FFCC
0026
FFED
000A
0000
FFD6
001F
0023
0007
FFF5
000B
0007
0011
FFFA
0015
0007
002A
0051
0017
000E
0029
FFF8
001C
0019
000D
FFD2
0015
0034
FFE2
FFD7
0002
002D
FFE8
0016
FFD4
0006
FFD8
0006
FFD3
0020
FFE7
0019
0000
FFD7
FFEE
0004
FFFD
FFD8
0004
0004
FFF0
000C
FFC1
0014
002A
FFCE
FFF1
0018
0029
000B
FFE1
002C
FFDE
0000
0040
FFE6
FFE8
0003
0001
0002
FFCC
000D
0003
0021
FFE9
000D
000A
0008
FFFD
0000
0008
003D
0001
0018
000F
FFEE
FFC0
0011
0007
002D
FFCB
FFD9
0005
0039
0014
002A
FFF3
FFEC
0009
FFF2
0010
FFA5
FFD6
FFF4
FFEC
0002
FFFF
0003
0039
0018
FFFA
0009
001B
0030
FFF8
0023
FFF4
0015
0024
0004
FFEB
FFFF
FFF6
0006
FFE2
0015
FFFB
FFFE
0023
0024
0011
001A
0021
FFF2
0026
000A
FFF9
FFF5
FFB4
0007
FFFC
001E
FFE9
001D
FFDE
FFDF
FFEC
FFDC
FFE9
0014
0020
FFF7
0001
0007
FFDB
FFBF
FFF8
0010
FFFC
FFC0
0004
FFE3
FFFD
FFFE
FFED
0012
FFFD
FFEE
000D
0008
0000
000F
FFF7
000D
FFFC
001D
0001
000C
FFEB
0020
0000
FFF0
FFC6
0029
FFF9
0005
0024
FF9D
0015
FFE1
005D
0002
0019
001A
FFF6
0005
FFE8
FFF9
FFFF
0011
FFBE
FFF6
FFD4
FFEC
002B
0002
0040
0004
FFF5
0023
FFD0
0020
0008
FFF7
001E
FFF4
003D
FFEF
0003
FFE3
FFE2
FFD5
000E
002F
FFF8
FFF0
0001
000C
FFFC
0004
0041
0013
FFDD
0032
000C
0002
FFFB
000C
0002
FFF8
0007
0001
000F
FFE6
FFF0
FFEA
FFD5
0008
000A
000C
FFFD
FFF3
FFD1
0010
FFEF
0004
002B
0026
FFF1
0028
FFD2
FFDA
FFE4
FFEF
0002
FFF0
0021
FFF0
FFF7
0011
FFFF
FFEC
FFE9
001A
FFDE
000B
0016
FFFB
000B
003B
0031
FFB8
0033
FFF3
FFEA
0001
0004
001A
0014
FFFE
FFEC
FFF3
001E
FFD6
FFEB
FFBA
FFE2
FFD2
FFF9
FFE3
006B
0007
000B
005C
FFF5
FFEA
FFEF
FFE8
0040
FFE6
FFCF
000B
FFEC
FFF9
0005
002C
002A
FFD3
0051
FFC4
0015
0044
0010
0000
FFDD
FFF7
0016
001D
FFF9
000C
FFF9
FFF4
001B
0008
FFDB
0000
FFF0
0009
FFC2
FFED
FFFE
FFD6
FFFD
FFF4
001B
FFD1
FFFE
FFF0
FFDF
FFF5
0012
0008
0009
0018
FFE3
0016
0007
0022
0030
FFC7
0015
0021
0029
FFF6
FFCB
0009
0013
FFBF
001E
FFFF
FFFF
003C
FFFD
FFE6
FFFF
FFFF
0021
0019
0021
FFED
0030
000B
FFF1
0016
FFFE
0020
FFF6
0015
0033
FFF6
0020
FFDD
FFF5
000F
0003
0008
0000
FFFD
0014
FFFC
0031
0033
FFF3
0017
0033
0018
000E
0002
0004
FFEA
0025
0040
FF98
FFB0
0012
FFE6
FFC9
0050
FFC2
FFFE
0011
FFD4
FFE3
FFB3
FFF8
0022
FFE8
FFFB
FFFB
0002
0005
004E
FFEF
0016
FFF6
FFE6
0044
0004
001B
FFDF
0000
FFE8
FFEE
001F
001E
001E
0006
0000
FFFF
FFF1
0016
FFE8
FFC5
FFEF
FFED
FFDA
FFF4
FFE6
0018
0019
FFFA
FFF9
FFF5
FFEE
000C
0038
FFFB
FFF7
0005
0032
001E
0016
0018
0031
FFF2
000F
001E
FFE9
0002
FFD4
0016
FFE1
FFE1
FFFF
0009
FFD9
0033
0007
FFD5
FFDC
FFD5
FFF8
0016
FFF5
FFFB
FFF6
0034
000E
0004
0018
FFF4
0005
0009
000C
000B
0013
FFFE
FFFB
000B
FFE3
0006
0001
FFD7
0001
0000
0014
FFFF
0020
FFCD
FFF8
000E
0008
0008
FFF6
FFFB
000A
0002
FFFB
0001
FFCF
FFF4
001D
0011
0006
FFE8
0010
000F
FFFA
0030
FFFF
0026
001A
0005
FFE2
FFEE
0010
FFEC
FFEC
0010
0009
0017
FFCA
001F
FFF7
FFF9
0016
FFEF
FFF7
FFE4
0000
FFC6
FFE3
FFF6
FFCF
0046
0011
FFD7
FFFE
FFF5
FFF7
0023
0041
FFDA
002F
FFD5
002F
FFF0
000D
0008
0012
0020
0015
0007
FFFF
FFF0
FFE0
FFFC
FFFE
0018
FFF8
FFDE
FFFE
0011
FFE1
FFDC
0011
FFFA
FFBB
0032
FFF5
0035
FFC3
FFFC
FFF8
0006
0016
FFF3
FFD2
FFF2
FFD0
FFCB
0006
FFF8
FFD4
FFF0
FFF8
000E
FFF7
0007
0009
0034
FFF2
000B
000D
002A
FF9A
FFF7
002E
FFFD
0023
0013
FFEF
001C
0003
0016
0008
FFD3
0023
FFE4
FFF9
FFED
FFED
0006
FFFD
0007
0016
000F
FFF3
0009
0003
0024
FFFA
0013
FFE4
0015
FFEE
FFDB
FFDE
FFF2
0017
0004
FFF4
0003
0019
0021
FFBC
0009
FFFA
001E
0011
FFF5
FFD6
FFE2
FFEB
000E
0017
0023
0028
FFC8
FFF3
000C
0015
FFE5
FFA9
000C
000A
0016
003C
FFFC
0006
FFFD
002D
FFE7
FFFD
0031
0001
0005
0003
0011
FFD9
FFDB
0015
0016
0011
0010
FFAD
000F
FFF3
FFDB
0002
002D
FFCD
0001
0030
FFE9
FFE6
0002
0006
000A
FFEC
0002
0003
FFE8
0023
0006
0014
FFF7
FFFD
FFCA
FFEE
0014
000F
0020
FFE0
FFF0
0038
FFF2
FFFD
FFFF
FFF9
000B
FFDA
002E
001E
0002
0023
FFE9
000F
FFF2
FFED
001B
002C
FFC0
002D
FFE2
0048
FFF6
FFEE
FFBE
0007
FFB5
FFF9
FFBE
FFF7
FFB3
0031
0011
FFFF
FFF5
FFFC
FFF9
0008
FFB0
FFF1
FFD3
0011
FFF3
FFF7
001B
FFFA
0008
002C
FF8C
FFEE
FFED
0019
FFC3
FFDB
FFF4
0014
FFE5
FFF8
0027
FFE9
0000
0020
0034
0032
0005
001C
003E
FFBD
0030
FFFF
003D
FFEB
FFD0
000E
FFF5
FFDB
0001
000F
FFFD
0009
FFDF
0005
FFF9
FFDE
0013
FFFE
0003
FFF1
FFE7
FFD1
0001
0003
0006
FFF0
FFE9
0009
FFF4
FFF1
FFFD
FFEF
FFEF
0007
0017
0005
FFFA
FFD4
FFDE
FFEB
FFEA
FFF9
FFEA
000B
0000
0018
0003
FFEE
FFF1
FFE3
0009
FFE9
0005
0010
FFF8
FFEE
FFF2
000C
FFF5
FFF4
0002
FFF9
FFF8
0005
FFFA
FFDF
0002
FFE5
FFF9
0003
FFDF
000B
FFFC
FFFC
FFDC
0003
FFF3
FFF4
0010
FFFE
FFED
FFEE
0001
0011
FFE9
0001
FFD7
FFD8
FFF5
000E
FFE7
FFF2
FFF5
FFF5
0012
FFF4
FFFA
0012
0001
FFFC
FFF2
FFDE
0015
0014
FFF5
0005
0011
0007
FFE8
FFF3
FFF0
FFF7
0003
FFEF
000E
0008
0009
FFFB
FFE9
000B
FFE6
FFF7
FFEC
0006
0008
FFE2
FFE2
002B
FFEF
000F
0000
FFFA
FFF6
FFEC
FFEA
FFE0
FFE0
FFE9
FFE9
0009
001B
0014
0015
0022
FFF3
FFF6
FFFF
FFFC
002D
0014
FFF3
0002
FFF3
FFFA
002F
0032
004E
FFFA
FFE7
FFC5
FFF1
0016
FFC7
000C
FFEB
FFCB
0001
FFF9
0004
0008
FFC9
FFED
FFC4
FFEF
0004
0021
0023
FFF7
FFFA
0063
0006
000B
FFF4
FFF6
0028
FFF7
002F
0003
0012
0024
0004
FFCF
001B
000A
FFF1
FFF5
FFDA
002F
0008
FFD6
FFE1
000E
FFEC
0006
FFF6
0016
000F
0008
0018
0024
FFFC
0001
FFE3
0011
FFD8
FFD0
0017
000A
FFCC
001A
0003
0007
FFBD
0033
FFF8
FFDE
FFB8
0017
FFCC
0037
FFF5
FFF4
0055
000A
000B
002A
FFEB
000B
001B
0013
FFE4
FFF3
003A
FFFF
003E
FFC7
FFDC
FFEF
0014
004B
0034
0015
FFEB
0030
FFF0
FFC2
FFE2
FFFD
0033
000D
FFF4
001F
001D
FFE9
0009
FFDC
000D
0001
FFFE
FFEE
FFCF
FFFC
FFFB
FFE0
001C
FFF5
FFDD
FFE4
FFF0
0015
0016
FFF6
000D
FFD1
0012
FFD8
002B
FFEB
0011
FFDD
0015
0004
001F
FFF5
0011
FFE0
FFCA
FFE9
FFE0
0011
FFF8
FFF5
000C
FFFE
FFF6
FFEF
FFF4
FFED
000F
0024
000E
FFE3
001A
FFD0
FFFB
FFE4
FFED
0025
FFFA
FFE8
FFF4
FFFA
0005
0015
FFFF
FFE7
FFF3
001D
0001
000E
FFF0
0013
000F
0003
FFE7
FFF4
FFFC
0010
FFFD
0002
FFFB
000E
FFDD
FFE8
FFCB
FFEF
0001
FFD7
0001
FFEE
FFFF
FFFC
FFEA
000B
FFE1
FFEF
FFD2
FFE3
0011
0013
FFE9
FFEB
000B
FFE6
0002
FFF9
FFEE
FFE3
FFE3
0012
FFE9
000C
0015
001D
0001
FFF4
FFD1
0023
0000
0000
FFEA
FFE3
FFF8
FFEE
0009
001D
0003
0019
0009
FFF4
0016
FFEB
FFE2
FFD9
0037
000E
0031
0034
0006
FFFB
FFFE
004A
000E
FFFC
FFF9
FFFC
FFF5
0000
0004
FFFE
0027
FFDF
0024
0010
000B
0002
FFEA
0025
FFE3
0016
0003
0022
FFEB
0010
0029
002E
FFFA
0003
FFDE
FFFC
000D
FFE8
FFFF
FFF5
FFF3
FFDC
FFF7
FFD7
001B
FFD7
FFE2
FFB0
FFEF
0024
FFE6
0016
000D
0014
FFF2
001C
0006
0013
0012
FFE1
0028
000A
003E
FFF7
FFCF
FFF2
0017
FFD6
0013
0009
0029
0011
0017
FFE6
FFFE
FFF4
0034
000A
000C
000E
0010
004B
0007
0005
0020
0011
0016
000F
000D
FFEE
FFFA
0024
000E
000B
0007
0007
FFF5
0033
001E
0000
0007
0059
0002
001C
0010
FFFF
FFF9
FFDC
FFE8
FFEB
0015
0022
FFC2
FFB7
001F
FFE8
FFF3
001A
FFAB
FFEB
FFE4
001B
FFDD
FFE1
FFCF
000F
FFD5
FFE2
FFE2
0009
FFE3
0014
FFE7
0004
FFEC
FFF8
FFF6
0025
0012
FFC9
FFEB
FFF7
0028
FFF6
FFED
0012
FFE4
FFEE
001A
FFD8
000E
FFD7
FFFA
FFFE
0002
FFF7
FFEC
FFD6
FFE9
FFE8
FFEC
0010
FFC3
FFFD
FFEC
0036
FFF4
0026
FFF1
0002
FFDE
FFE9
0005
0015
0017
FFE9
FFDA
0030
FFF2
FFCB
0013
FFDB
FFC0
0003
FFF0
FFC1
001E
FFCA
FFF9
0004
FFF7
0005
0024
0001
0003
0001
002F
FFF5
FFE3
0037
FFF3
000A
0011
FFEC
FFFD
0000
FFFB
FFFC
002C
FFF4
FFED
FFF3
FFF5
FFD7
FFFC
FFF6
000B
FFF9
FFEC
FFFD
FFFF
0005
FFC2
0006
FFFF
FFDC
FFF9
001C
FFEF
001D
FFE6
FFF2
FFD3
0011
FFD8
FFF8
0010
FFFC
FFDC
000B
001D
0016
0014
FFE1
FFFC
FFFA
FFC6
FFEE
FFC1
FFE4
0005
FFCD
FFEE
001E
000D
FFD2
0009
0011
FFFE
004A
000F
0026
FFF9
FFD0
0047
0039
FFC9
FFE9
000A
FFFE
0015
FFEF
001E
FFDE
FFF9
FFE5
0015
000E
0006
FFF3
FFE9
0015
000A
FFD5
FFE5
0017
FFF7
0023
0020
000C
FFEE
0004
0012
0028
FFEF
FFFC
0010
0000
0036
0013
0042
0006
0006
FFE1
0029
0001
0010
0019
0010
FFDA
0009
0026
FFF1
FFFB
0036
000F
FFEA
FFF7
FFE8
FFF1
0000
0012
0017
FFE0
005A
0009
0025
0007
FFF0
FFF2
FFF1
FFF5
001F
FFF7
000A
FFFD
FFEC
0019
0009
001B
FFFA
001E
FFF3
002A
FFFF
FFF3
FFDA
FFE6
FFE5
000F
0048
0005
0008
000E
0041
000E
001D
002A
001E
0011
0018
FFF1
001D
0027
002C
FFFE
004E
0018
FFE9
FFCE
FFFD
FFF3
FFD6
0057
FFF3
0015
FFDE
0024
FFFF
FFDA
FFF8
002B
000A
FFCB
FFD8
FFFA
FFDF
0023
003D
002E
0009
0000
0055
000F
001E
001A
000A
0002
0008
0003
001C
000B
FFF1
FFF3
FFFA
FFFC
FFF3
0003
0000
0008
FFFF
000E
FFD8
FFDD
FFEA
0004
0019
FFF4
0027
0000
FFF3
0007
0008
FFCC
FFEE
003C
0005
0016
0001
003A
0023
0017
000E
FFFA
000D
FFC6
0007
001A
002A
000F
000C
0006
FFEB
FFF0
FFD9
FFD4
FFED
FFF1
FFF1
0000
FFFA
FFDC
001A
FFE2
0000
0002
FFE7
001B
0016
001A
002C
0032
0029
FFEF
0011
FFBB
0000
0000
FFD8
000D
000A
000B
0002
0007
0016
0007
0008
0011
000F
000B
FFF1
FFE1
0038
FFEE
001B
FFCE
0043
FFF2
FFF0
FFF7
0002
001D
FFDF
002D
0003
FFE6
0008
0013
FFEF
0025
FFD5
000E
FFD2
FFE6
FFDF
FFE9
FFFA
0009
000D
0015
0013
0027
FFEC
FFFA
0002
FFCC
001F
FFF3
0000
000C
FFFC
FFE1
FFF9
0042
0007
FFFF
0011
0003
0029
FFED
00A9
000D
0027
0030
FFFF
0016
0010
0000
FFEC
0003
FFE7
FFC6
FFFA
FFBC
FFF3
0011
FFFF
FFF8
0004
FFF1
002E
FFE0
0011
002A
000D
0017
FFC2
FFDF
0014
001D
0033
FFF3
000D
0034
FFF5
001B
0016
FFC5
FFF0
0040
FFB9
000F
002C
001D
001E
000B
0003
FFF1
000E
FFF3
FFB6
FFCD
FFE9
FFFD
FFFD
FFE4
FFE2
FFF2
FFFE
FFFB
001E
0013
000C
FFFA
0003
0005
FFDB
0000
0013
FFFB
FFC7
0009
0021
002D
FFEB
0010
FFE7
000E
FFF6
FFBD
FFE5
FFF8
0024
003B
0017
FFE0
0013
000C
0031
FFE1
FFAF
FFDD
FFDC
003A
FFEA
FFFD
FFF9
000B
FFEF
0025
0016
FFFC
0022
FF9D
FFFB
0002
0019
FFDA
FFF4
FFFF
FFDE
FFF9
001A
FFAC
FFEE
FFFD
000D
003A
FFCB
000B
0029
FFCD
000D
0009
0018
000B
002E
FFDB
FFFB
FFD3
0021
0019
FFFA
0002
0009
FFF9
0005
001E
001F
FFFA
FFFF
FFFC
FFF1
000B
FFF9
FFF5
FFF4
FFFA
004B
FFEF
FFEC
003B
FFFA
001C
000D
0007
0033
FFC4
0001
000A
0011
FFE6
FFEB
0025
FFF5
0004
0009
0035
0014
003B
FFF8
0008
0023
FFF4
0030
000F
FFFC
0002
FFEF
0011
FFF2
FFF6
0000
000B
0029
0004
FFBA
FFF6
FFF0
000B
000D
FFF0
FFF1
FFF3
000B
002B
FFF7
001F
FFF3
000F
FFF8
0016
FFFD
FFED
FFDD
0007
0008
FFEE
0015
0017
FFFF
FFEF
FFF2
FFF8
0012
0011
FFF7
001B
FFF4
000B
0009
0006
0009
0019
FFE8
0004
FFE0
FFC2
FFF7
0010
FFF5
FFC9
0017
FFEC
FFF2
0013
FFE6
001A
0011
FFEF
FFF4
FFFD
FFE3
0002
0002
0005
0054
000C
FFBE
0023
0011
0013
0010
0021
FFED
0025
000B
001B
FFFE
FFF8
FFF6
0030
001A
001D
FFF6
0028
FFD5
FFE3
FFEE
FFEE
FFFB
FFFC
000D
000E
FFF8
FFE1
FFE4
FFEC
FFFB
FFF2
000C
FFF9
0003
FFE5
000A
001D
FFF2
FFE0
000E
0029
0018
0006
FFCD
FFE7
FFFA
FFEF
FFE9
0014
FFF5
002D
FFED
FFEA
0016
FFEE
001B
0023
FFE6
FFBD
FFE1
FFDB
0013
FFEA
FFD6
FFEC
0010
FFED
FFED
FFF4
FFC3
004A
FFFE
0011
001A
0018
FFEA
0013
FFBF
001B
0007
FFF1
FFE9
FFFB
003A
FFF0
FFF8
FFF1
000F
FFF6
FFC9
0015
000C
0003
FFF9
000F
0007
000B
000D
FFC3
0016
0006
0026
001E
FFFD
0017
0019
0016
0001
FFEE
0030
002E
FFF6
FFF8
FFFF
0005
0008
FFD2
0000
0007
000F
FFEC
FFFA
0000
000C
000C
FFEC
FFEF
FFF5
0003
0009
FFF4
000C
FFEA
FFF3
FFF5
FFF6
000A
FFE3
FFFB
0003
FFFD
FFFA
0002
0009
FFF5
0005
0008
0001
0013
000C
FFEF
FFF1
FFF1
000A
FFFA
000A
FFE5
FFF2
FFFD
FFF7
FFFC
FFE4
0008
0002
0002
FFFD
FFF3
000F
000A
0013
FFED
0005
FFE7
0010
000D
FFEF
FFE3
0004
0000
000D
0010
FFF6
0012
FFF2
FFE1
0000
FFF5
FFF6
FFF5
FFF0
0011
0000
000C
FFF4
FFE3
0009
FFF7
FFF0
0004
0008
000B
FFF1
FFE5
0008
FFF0
FFE6
0001
FFEE
0002
FFFF
FFF0
0006
0004
0001
FFFC
FFED
000F
0009
0008
FFE5
FFE6
FFF0
0006
FFED
FFE8
FFE6
FFFD
0010
FFFD
FFF7
FFEF
0012
FFFA
000B
0002
FFF9
0013
FFFF
FFE9
0003
0008
0003
0000
FFEF
FFE7
FFD7
0016
001B
FFD5
0010
FFE3
0009
0010
FFE0
0008
FFF4
0011
FFF5
FFFF
0026
FF79
FFF2
FFF4
0030
FFED
001A
0011
FFFA
000D
FFEE
FFFE
0000
001A
0003
001A
FFC3
FFF3
002E
FFEE
003D
000C
FFF1
002D
000B
0021
FFEB
FFE4
0004
FFFC
0035
0011
FFEE
FFF6
FFED
0013
0000
0040
0007
FFC8
000D
0006
000C
FFA6
FFC5
0009
FFDA
0010
0016
0000
0013
FFF6
001D
FFEC
FFF3
0000
0004
FFEE
0002
FFF9
0002
0015
FFF5
FFFF
FFF9
FFE4
FFB5
0026
0018
FFF7
001E
FFEE
000A
0023
FFF7
FFCF
FFE4
000E
FFFF
000A
FFE3
FFEF
000B
FFF7
0012
0001
FFFC
FFFC
000D
FFF6
FFBC
FFEF
FFEC
0023
0023
0012
FFFC
FFAC
FFE5
000F
0008
000B
0012
FFCD
0024
FFE9
0012
FFED
FFEC
FFFA
FFE8
FFF4
0003
0005
001A
FFEF
FFE7
0032
0005
0007
FFFA
FFE5
0013
FFE1
FFFA
FFFB
000B
0015
0003
000F
FFE2
FFF9
FFFD
0010
FFD3
FF9D
000F
FFE0
FFF5
FFFA
0015
0003
FFEE
FFCC
FFE5
FFE8
FFDC
FFFD
0000
FFFB
FFF7
FFED
0029
FFED
FFF8
FFDB
FFB2
FFCF
FFCB
FFFC
FFC8
0001
FFE5
002F
FFEF
FFEC
FFFC
FFE2
003B
FFE8
000B
FFED
FFBD
FFF2
FFDD
FFF7
0013
FFF2
000D
0011
000F
0020
0001
FFC5
FFEF
FFDF
FFFC
FFF4
0005
FFED
0009
0012
0013
FFF6
FFD7
FFD8
0003
FFF9
FFFC
FFE8
FFF6
FFE9
0008
FFE5
0023
0007
0016
0009
FFF6
FFF3
FFF6
FFDF
FFD7
0013
FFF4
0015
001D
FFD0
FFD8
FFF8
FFF5
FFFF
0006
FFF6
FFC2
FFEE
0013
FFF7
FFED
0023
FFF7
0007
FFC2
0001
FFFF
002C
FFE4
002E
FFF7
0001
0019
FFDB
0009
FFFF
FFF7
FFFD
0003
FFF6
000E
FFFA
FFE2
0000
0003
FFFA
0016
000D
FFEF
FFEC
FFFF
FFFE
000B
FFEF
FFF5
0006
0014
FFEB
0008
FFFB
FFF0
FFF9
FFFF
FFEA
FFE9
FFE5
0007
000F
0008
000E
0008
0007
FFFE
FFE3
FFFE
FFF6
FFF9
FFE3
FFF7
FFEE
FFF6
0002
FFED
FFE7
000E
0005
FFF2
FFF2
FFFD
FFED
0007
0010
000A
FFFC
FFF5
0001
0004
0010
FFE9
0015
FFFA
FFE9
FFEB
FFF2
FFF5
000D
0015
000F
0000
000A
FFE6
FFF5
0002
000B
0002
FFED
0008
0007
FFEA
0003
FFF9
FFF3
FFFB
000A
FFF9
FFED
FFEF
0003
FFDC
0012
0016
FFE7
0007
000D
FFE4
FFF8
FFF0
000B
0003
FFF4
FFE5
FFFD
0009
FFEB
0012
FFEB
FFF7
0002
FFEB
FFFE
000F
FFF3
FFF2
FFF6
FFFA
000F
0006
FFF0
FFF0
FFE5
FFF7
0008
003D
FFF2
0011
005E
0013
0024
000B
001D
0021
FFEC
003F
0006
FFF3
0008
FFF1
FFD4
0033
FFEB
FF9D
0009
001C
FFEB
FFF0
FFE2
0053
FFF7
001E
0001
001A
001D
002E
FFFC
0017
0007
002F
0009
0003
001F
FFE7
001C
FFEF
FFE1
FFD1
0006
001D
0041
FFCB
0006
FFFF
FFEE
FFFD
FFEC
FFF0
0027
FFFA
0019
000A
FFA6
0015
000C
FFE8
0014
0011
000C
0013
0005
FFFA
000A
FFE7
0026
FFFA
000B
0008
FFEE
0003
0018
002D
0009
0002
FFE8
0012
0000
FFF7
FFF0
0004
FFF4
0012
001A
0026
0008
0001
FFF1
000D
0000
FFBF
FFF3
FFF6
0063
0021
FFF8
002F
FFE0
FFF2
FFE1
FFE2
000F
FFCE
0011
004B
0019
FFE6
FFD4
FFD4
FFF8
000C
FFEB
0023
0021
FFDD
000E
FFF2
FFE8
0019
000B
FFDB
000E
FFFE
0011
FFED
0012
FFF8
003A
0022
0031
FFFA
FFE0
FFA5
0010
001F
FFF7
0017
0005
FFE2
001D
000F
FFEA
FFF7
0069
0027
0001
0016
FFF9
001C
000C
0006
FFFE
0019
FFF7
0015
FFD4
FFB7
FFFC
FFE0
0014
0010
0020
FFF0
001F
0015
FFF3
0022
0042
FFCA
FFF7
FFF3
0016
001E
0020
0017
0007
0014
0011
FFF7
FFDF
FFEB
0024
0010
001E
001A
0008
FFF5
0008
0022
FFF8
000E
001F
001B
0020
FFC2
004D
FFFA
FFED
FFE9
FFEF
0003
FFF1
FFBC
000D
000B
0023
0017
0007
FFC6
FFFA
FFFB
FFF1
FFCD
001C
FFDB
0014
FFF5
000B
0010
FFFA
0010
0008
FFE8
FFFF
FFD3
0045
FFDF
FF99
FFF5
FFEE
FFD8
0031
FFFE
0019
FF95
002D
FFFE
000F
FFF5
000D
0014
FFE7
0040
FFF3
000D
FF90
0002
FFF2
0025
FFCE
0026
000E
001B
FFF2
FFE2
FFC1
001D
FFFB
FFF4
0002
FFE0
002A
FFEA
000E
000D
0001
000D
0069
001E
FFF8
0092
0003
0045
002B
0004
FFFC
FFFD
0005
FFE2
0016
FFFB
002E
FFE4
FFC9
0013
0004
FFFE
0006
FFF5
002B
FFF3
0008
FFF7
000E
FFFD
002D
FFC3
FFF1
FFF9
001B
0003
0012
FFEC
0037
000A
FFFE
FFDB
000B
FFFB
0023
FFDE
FFC2
0026
0015
0023
FFEF
0000
0002
FFF1
FFD6
0002
FFD1
0015
002B
FFF4
0001
0018
FFE5
FFFD
0026
0010
000D
0007
FFC0
000B
0006
FFFB
002B
0007
FFFE
001B
FFED
0045
FFF1
FFFF
FFFE
000B
FFE8
0016
FFCA
FFE6
FFF2
0011
0042
000D
FFE5
000A
0019
0031
FFEA
FFB4
FFF1
FFF7
001A
FFFD
FFCD
FFFA
FFF1
FFF8
0028
FFE8
FFE6
000B
FFAF
0018
000B
001C
0008
0011
0003
FFFF
FFFB
FFF4
001A
001E
0018
0016
FFB5
005A
FFE6
FFFE
FFDC
FFF2
0002
000C
003F
000B
FFCE
FFF4
FFE3
FFF0
0002
FFFC
0024
FFB1
FFF7
FFF6
FFE6
FFF1
FFD9
0005
0019
002C
0000
FFB6
0014
001A
FFE7
0007
FFE3
FFFE
001D
002B
001C
0014
FFF9
003A
FFD4
0015
FFE4
0000
FFC7
FFF5
0016
FFE6
0011
0009
003F
0033
FFF5
FFC8
FFF1
FFE4
FFF3
FFFC
FFF2
0005
0013
0010
FFFF
0018
0000
FFF8
FFFE
0011
FFF4
FFF9
0019
001C
0017
0020
FFDD
0017
001A
FFDF
0016
FFF9
0012
001C
0016
FFE9
FFD3
0009
0004
002B
FFF5
0002
FFFC
0039
0004
0029
FFCC
001A
001E
0029
FFE9
0016
0017
0000
000B
0035
0009
FFFB
FFEE
0014
FFF1
FFCC
FFD2
FFD8
001B
FFFD
0023
000C
FFE5
0026
0024
0007
FFF7
001F
FFFA
FFFE
FFEE
FFE7
FFE4
FFFB
FFF3
0049
FFFB
FFDF
0025
0018
0018
0031
0051
FFD5
001E
003B
0010
0012
FFF8
0012
FFF5
0025
FFFB
FFFA
0020
FFE5
FFF8
FFD1
0021
000C
FFFB
0003
0014
FFF0
0022
FFB9
FFF4
000E
FF99
002E
000D
002D
FFFC
FFF0
FFFA
FFC4
FFEA
FFE9
003D
FFEB
FFF1
FFC1
FFEE
0004
FFE5
0025
FFDA
0010
0034
FFFB
FFF4
0024
FFF4
0003
FFDB
002B
FFF7
FFD6
0007
0015
FFEF
FFFF
FFF4
003D
000D
0019
FFF2
0002
0043
0006
0007
FFF7
FFE4
000C
000B
000C
0012
0020
FFF5
0011
FFEE
001A
FFF6
FFFE
FFF8
0015
0010
FFBF
0006
0005
0006
FFD1
FFF8
0001
0012
003C
FFDC
FFC4
000C
0005
FFEF
FFEE
0001
FFF5
0026
FFDB
FFF7
0029
0019
FFE0
FFC9
0008
0016
FFD9
FFC6
0018
FFFD
FFE9
000D
0000
FFF3
FFFD
FFD8
0020
0008
FFFA
0011
FFF2
FFF9
FFF1
0040
FFF5
FFFF
FFE0
0034
FFFA
FFF1
0016
0006
FFEB
FFED
0000
FFEB
0028
FFC5
0035
0004
FFE9
0013
FFD5
FFF7
FFF3
FFF6
FFFA
0002
FFFC
FFF2
0025
0001
FFCE
FFFF
0028
FFF6
FFF7
0029
FFFF
FFCF
0005
0013
FFF2
0021
000F
0041
000F
000B
0025
FFE8
0016
0013
0016
000C
FFFB
0016
0010
FFFA
002C
0018
0006
0022
0015
000F
0001
FFFC
002D
0005
003D
FFC5
FFEC
FFF2
FFF6
FFFA
FFF5
FFCE
003F
000C
0024
0005
FFE0
0001
0013
FFF1
0008
FFF6
0024
FFF8
0025
FFD7
FFFE
002D
0028
FFF7
FFEB
FFCD
0010
001B
0001
002F
0007
0012
0007
0009
0017
FFE0
FFCC
FFED
0019
001E
001E
0039
0036
FFEC
0029
000B
FFCC
FFFE
0017
FF95
0018
FFEA
FFF5
FFD6
FFF0
FFE0
FFE8
0000
FFF4
0013
0016
0049
FFBC
0014
FFC5
0036
001D
FFFB
FFEF
0017
0012
000E
0010
002E
000D
FFF5
000C
FFFC
0013
FFF9
FFFF
0002
FFEA
FFF5
0018
0007
FFF2
FFF3
0013
000B
0028
FFD3
FFF6
0013
FFEA
0034
FFEC
FFDE
0016
FFE1
FFE6
FFD6
FFF9
FFD2
FF97
0016
0017
0014
FFFF
0018
002F
0014
0005
000E
FFEE
FFEB
FFFB
0005
FFEE
001E
001B
001A
FFF4
0022
002A
0012
0007
FFDD
0001
FFFE
002A
000F
0001
FFE8
000D
0012
0028
FFF7
FFF7
FFF4
FFDE
000D
0009
FFCF
0002
0023
FFDA
FF90
002D
FFE8
FFFB
0001
0007
0012
FFF7
0013
FFD1
FFEA
000A
0030
001B
FFFE
FFEC
FFEC
0004
FFFC
FFF4
0025
000B
0028
001E
0029
001E
FFF7
FFE3
FFEE
0012
FFDF
0009
FFF3
FFFE
002A
FFAE
000F
0002
FFDB
000F
0010
002E
0015
FFE5
FFF2
002C
000E
0021
FFF8
FFE9
FFE6
0033
0018
FFFE
0021
0028
004F
FFE9
FFCE
FFFD
000E
FFFA
FFEE
0007
0032
0000
001D
FFF8
002A
FFE7
0038
FFD8
FFF6
FFFD
001C
FFE0
0016
0015
0034
FFF2
FFF2
FFE3
0009
FFFE
0003
FFB9
000D
0025
FFED
0013
0013
0026
0006
0006
0000
FFF0
FFF6
FFEC
FFF9
0017
FFFD
002D
000F
FFC3
FFF9
FFE6
FFFE
000F
FFD7
FFFD
FFFD
FFF8
0031
FFFA
FFE5
FFF7
FFEF
0005
0009
0012
FFEF
FFFD
000A
0002
FFD1
FFCF
000E
FFFB
0007
FFEE
0000
FFF2
0002
0048
000A
FFC1
0026
001A
FFF4
FFF7
0003
000F
FFD1
FFF3
000A
005A
0011
FFEA
FFD7
0031
0019
0023
FFE6
001E
000F
FFCC
FFEF
0000
FFDF
FFE6
000A
000A
FFE8
FFEB
FFF8
0003
FFE7
0005
000A
FFF6
000D
FFD9
FFE2
0021
FFDD
FFF1
FFF4
FFF4
FFF0
0003
0016
0005
FFFD
FFEF
FFF2
0049
0014
0009
FFEC
FFF4
FFF4
FFFF
0011
001B
FFF0
FFFE
FFE7
001F
FFE7
0005
0008
000E
FFF8
FFF7
FFFA
0007
FFCD
FFFC
FFFC
000F
FFF1
0002
0001
000B
FFE5
FFFD
FFFA
0015
FFF6
FFF7
FFF7
0014
FFFF
0006
000F
0000
0009
0016
0006
0020
FFF3
FFF3
FFD1
FFDE
0002
FFF3
0006
0014
FFFA
FFF1
FFEE
0008
0014
0000
002D
FFE3
FFDC
FFF8
FFEC
FFFE
000B
FFFF
FFE3
000E
0013
FFE6
FFD6
FFF8
0026
FFE6
0000
FFEB
0023
0022
FFEF
000C
0002
FFE0
FFF7
0005
FFDB
FFDC
0040
FFFF
0007
FFDF
000B
FFEF
0030
000A
FFE9
0002
FFE2
FF99
0009
FFFB
FFB6
000D
FFFB
000E
000B
FFE3
002D
0006
0007
FFF3
FFF3
0016
FFF9
0000
FFE1
0034
0008
000A
FFFC
0013
0004
FFF7
FFF5
FFEB
000F
0002
0017
FFDE
FFF9
0000
FFFE
000C
0013
0009
0013
0053
FFEE
FFED
007C
0012
0029
0003
001E
0040
FFFF
0027
000E
000D
FFE6
000D
FFED
0006
001B
FFEC
002B
FFDE
0012
FFF1
FFFD
0015
0012
FFEB
0013
FFF8
FFFF
0006
FFDE
000C
FFF9
FFF7
000B
0008
0008
FFF8
000D
FFEC
000E
FFEE
FFB3
FFFA
FFF5
FFF5
0012
FFFC
0020
FFDD
000B
FFF7
0024
000D
0000
0015
FFFE
000D
FFC7
FFEC
FFFD
0018
001A
FFF9
FFDF
FFFE
000D
004E
002B
FF9B
001B
FFF6
FFFC
0033
FFFA
0004
0018
FFEE
FFF5
0033
0001
0015
FFBD
0015
FFEC
0021
FFE9
0010
001D
FFEC
0003
FFE0
0023
0016
FFF4
0013
FFE1
001A
FFF1
FFDE
FFFB
FFEA
FFF5
FFF7
0016
0013
FFDE
000A
FFE0
FFF9
0018
FFF9
0011
0019
000B
0000
0012
0009
0000
FFDE
FFE4
FFF6
0010
FFE3
0006
0007
FFF0
FFD6
FFDB
FFF4
FFED
FFEE
FFED
0008
0002
0000
FFF0
FFEF
FFF1
0008
0003
FFF2
000C
000E
FFF5
FFE9
FFEF
FFC9
FFDF
FFE5
FFE6
001E
0002
FFE7
0015
FFEC
FFF6
0010
FFE3
FFE4
FFFC
FFFC
FFEB
FFE8
FFEC
FFEA
0010
0014
0005
FFD9
FFF7
FFEA
FFF4
0004
FFC7
0014
001C
0011
FFF9
0020
FFFB
000C
000F
FFCE
0009
0005
FFF7
FFF3
FFFE
0017
FFF8
FFDD
FFBA
0011
FFFE
FFFD
FFF0
FFD8
0007
FFF6
FFE8
FFE8
FFEC
0008
0003
FFEE
FFEE
FFE6
FFF6
0002
FFE9
0003
0004
FFF1
FFEB
FFF0
FFF9
FFFA
FFF7
0002
FFE8
0003
FFEA
0012
FFE5
0006
FFE4
FFF3
FFF8
0007
FFF9
FFFE
0003
0032
0014
0008
000A
FFF9
000E
0002
0014
FFD6
FFF5
0008
FFF9
FFD9
FFE8
001C
FFF9
FFE8
0004
FFCF
FFF7
0011
FFDC
FFF0
FFD4
000E
0009
0014
FFB7
0005
000A
0000
FFF6
FFF6
0025
FFFA
0023
FFF1
000F
0007
FFD5
FFF1
FFF2
FFEF
FFCF
001A
0002
001F
FFFB
0000
FFF3
0013
FFEF
FFDE
000A
FFEB
0023
0013
000E
FFEE
000B
001C
FFF4
0006
FFF8
FFFA
0013
FFF2
FFF6
FFD6
FFD8
FFF3
FFDF
FFF7
0027
0024
0010
FFF4
FFEE
0012
FFF3
0011
0001
0011
000F
0019
FFD3
0007
FFE1
FFDB
000D
FFED
FFD2
FFF4
0000
FFD5
0005
FFE8
0000
0015
FFDC
FFEA
003B
FFA6
0011
001D
FFE8
FFF4
FFF7
FFDD
0005
FFEE
0004
FFBF
000B
FFD4
FFF5
000B
0000
FFF9
0019
0019
FFF6
0002
FFE4
FFE8
FFFB
FFFD
002C
FFFF
FFE5
005B
FFF6
0010
0045
FFF4
003E
FFE0
0008
0020
FFDA
0002
FFF0
002C
FFD5
FFFA
FFF8
FFEF
0014
FFFB
FFEB
0059
FFE9
0007
000C
0044
0043
FFD5
FFBE
0036
FFFD
0023
0005
000D
FFF2
0019
FFF6
0006
0000
000A
000C
FFF8
002B
004E
0009
FFEB
FFFE
0020
FFED
0001
001E
0024
FFFE
FFEB
0021
FFF2
FFDF
FFE0
FFF1
FFDB
FFD8
FFF0
FFFA
002D
FFFB
FFED
FFE6
FFF4
0021
FFF1
001B
FFB4
0037
FFD0
FFFB
0008
FFEF
0011
0009
0011
FFC3
000B
0000
FFE7
001C
FFD1
FFEF
002E
FFED
0024
0012
FFBA
FFEA
0008
0031
002A
FFEE
0002
FFFE
FFFA
FFD9
0038
FFF4
0034
FFF8
000F
0009
0056
FFB9
FFE9
0016
FFE9
000C
0017
FFD0
0009
0021
FFFF
0037
FFDB
0012
FFFF
0007
0005
000A
0016
FF88
0002
0019
0024
FFFA
0025
0004
000C
FFDF
0040
FFFE
FFBA
002F
0026
0029
FFD8
FFCF
001C
000A
005B
FFF8
0004
000F
FFF1
0031
000E
FFF9
FFD5
FFFD
FFEC
FFFB
FFFE
0003
0016
FFF8
FFEF
0056
0010
0007
001D
FFCF
000A
FFDA
FFE5
0038
0012
0041
001D
0006
FFFA
FFEE
001A
0000
FFED
000D
FFD0
FFDC
FFEF
FFF4
FFF1
FFEC
000A
0015
FFE6
FFEE
FFF5
001D
0008
0017
0013
FFFA
FFE9
0030
FFEC
FFFC
FFEB
001F
0010
000B
FFD8
000B
FFFB
0025
FFD6
0009
FFDC
001E
FFEB
FFF5
FFEC
FFEE
FFF5
0010
001E
FFF2
FFFC
FFBB
FFE8
0026
FFFC
0027
002B
0014
0025
000D
0006
FFE8
FFF5
FFF7
FFD6
FFED
0022
001C
0043
000E
FFE5
0030
FFFF
0023
FFFD
0006
002B
002E
FFF8
0042
000C
FFFF
FFFE
001E
0007
0019
0004
0008
0002
FFCD
0010
FFD2
FFE4
FFFF
FFFF
FFD4
FF99
0012
FFEC
0017
000E
FFE8
001A
FFFA
0004
0016
FFA4
FFDC
000E
FFB3
0004
FFE9
002B
002D
FFF4
FFF2
001C
0007
FFFD
0010
0016
FFF4
FFDB
FFEB
0002
FFB1
0018
FFF2
FFF5
FFF2
FF8A
FFF1
FFE3
FFF0
FFF5
FFEC
FFF4
0001
FFE5
FFF2
FFF7
0001
FFF6
0006
0049
003F
0023
0000
0012
FFE9
0003
FFFE
FFFA
FFFC
FFFA
0018
001C
0049
0007
FFD8
0005
FFF4
000C
0008
FFFE
0007
0016
FFF7
001D
FFC8
0030
FFF3
FFD9
FFF3
002B
0009
001B
002F
FFE1
FFBC
0000
FFD6
0030
FFBB
000D
001E
FFB7
0005
000C
0008
FFE3
FFB2
FFD7
0015
FFEA
FFF7
FFCA
FFFE
FFD4
FFE5
0017
FFFC
000D
0016
FFD8
0011
FFFE
FFF7
FFF0
000F
0015
0014
0008
FFBC
0028
FFF4
FFF4
0011
0008
0005
0047
0013
FFFB
000A
FFFC
000B
FFBF
0009
000D
0005
FFEA
0001
FFFE
0044
0026
000D
000C
0024
FFEF
0038
0022
002A
001A
0025
0029
000D
FFF5
FFF2
0005
FFEE
0012
000A
0001
0000
FFCF
FFC9
FFF5
FFF2
FFF6
0014
0003
000A
0000
FFF8
0007
FFF3
0008
000C
FFF1
FFEF
FFFB
FFFA
FFE0
0018
FFF2
FFEC
001A
FFB1
FFED
FFF1
0005
002A
0001
FFF4
001F
FFE3
0019
002A
0016
FFF3
FFF8
0013
0009
FFF3
0017
FFFF
0016
0020
0017
FFF8
0006
0006
0040
0008
FFE5
000F
000D
FFC0
0007
FFFE
FFF4
FFFA
FFF7
0010
0017
FFE4
FFBA
FFC1
0010
FFE7
001A
FFF5
0018
0006
FFFA
0011
FFD5
FFDD
0002
0004
0007
FFED
FFFE
FFF1
FFE4
FFFB
0014
0013
FFFA
FFF7
FFF5
FFFE
FFDF
FFEE
FFD9
FFF6
FFEA
FFEB
0009
0016
FFF1
0004
0008
0010
0016
FFE7
FFDE
0008
FFF7
0004
FFFB
0006
FFF4
FFDA
FFED
0005
FFF4
FFF9
FFFD
FFE7
FFFA
000B
FFE9
FFEF
0015
FFE9
0003
FFE9
FFD4
0001
0000
0021
0004
0004
FFEE
FFF1
FFEB
FFFA
FFDA
FFFE
000E
FFD9
FFF2
FFFD
0000
0003
FFEE
0004
FFD3
000E
FFE1
FFDD
FFF3
FFF2
FFFB
0010
FFF6
FFF7
FFEB
FFDD
0004
FFE9
FFE1
0002
FFFD
FFFC
000C
FFF1
FFF7
FFEA
FFF2
FFF5
FFEB
000E
FFF1
0006
0000
FFDF
FFF1
0002
FFF2
FFE5
FFE0
0008
FFF8
0012
FFEE
FFFC
0007
FFFB
0006
FFEB
FFEF
FFEC
FFF9
FFE1
FFE4
FFFD
000A
FFEC
0002
FFEF
000C
0006
0002
0001
FFEF
000C
0009
0007
FFED
0000
FFFA
FFEC
0000
0012
FFF4
FFE5
0000
0002
FFE9
FFE4
FFF6
FFEE
FFF1
FFFB
000D
FFF3
0013
FFFA
FFF4
FFFE
FFFA
0001
0001
0006
0003
FFEA
FFED
0001
FFFB
0009
0011
000F
0001
FFEE
0003
FFE6
FFFC
FFFB
000E
FFEE
FFF8
FFE4
0001
FFEE
FFF7
FFED
0007
FFFF
FFE6
0006
0007
FFFC
FFF2
FFF8
FFF6
000C
0015
000A
0008
FFEA
0002
FFF5
FFFC
0008
0006
FFF7
FFF4
FFFD
FFE3
FFFF
0002
FFD9
0006
0015
0004
0000
FFFC
FFF7
FFE0
0001
FFDD
FFF0
0006
0014
000E
FFED
000C
0004
FFED
FFF4
FFFF
0006
000B
FFF2
FFE7
FFF7
0015
FFDC
FFF1
FFE8
FFFC
FFF5
FFEE
FFFF
FFEE
FFF9
FFE9
0001
000D
0000
FFF0
FFE4
FFE9
FFFB
000B
0006
FFEF
FFE6
0042
0007
001D
0030
FFDD
0007
0015
0009
FFFE
FFF0
0017
FFA9
000A
0017
FFF8
FFFE
0015
FFE4
FFCE
FFD8
001B
FFDF
FFEB
FFF9
0011
FFF2
002A
FFE7
002E
FFE5
FFFB
FFDC
FFEC
000E
FFAA
FFFF
FFF7
0038
FFEF
FFFF
FFFA
FFE3
0019
0021
0003
FFDA
001B
FFE3
001C
FFDB
FFF5
0014
FFF4
0029
FFDA
0001
0002
000E
004F
0019
0013
001B
0029
0010
0004
001B
0008
0016
000A
001C
FFC5
003C
FFFA
FFF9
0004
FFEF
FFCF
FFB8
FFA9
0000
000D
000C
0017
FFF0
FFE2
FFFC
FFF4
0017
FFC5
0030
FFDF
FFE4
000B
0016
FFDD
FFFE
000B
0017
FFFF
000E
FFED
002D
FF82
001C
FFE2
FFF8
FFB7
FFFF
0040
FFFB
FFDF
0019
0004
0009
001D
0011
0006
0000
001F
FFF3
0031
0001
FFFD
FFF2
0034
FFDF
FFCD
FFFA
FF98
0006
001D
FFD6
0020
0019
0008
FFFF
0014
0000
0036
FFD4
0016
FFFE
000E
FFC5
0011
0015
FFB4
FFCA
FFFF
FFF6
0000
002C
FFE7
FFE7
FFE9
FFFF
0003
0008
000B
0026
0008
0010
FFE5
FFFD
0018
0015
003D
FFE7
FFFA
0048
0003
FFED
0029
0038
0020
0014
0035
FFF1
0009
FFBB
0003
0011
0044
FFF2
0008
FFCA
0000
001B
FFFE
FFCC
0023
FFED
0016
FFEC
FFE8
0011
0008
0029
0017
FFC9
0009
FFEE
0019
000B
FFD2
FFDE
0013
FFF9
0010
0010
000B
FFF0
0024
FFF3
FFEB
0031
FFE8
0017
FFE9
0004
001C
FFF6
FFEF
FFF7
FFFB
0043
0027
0005
FFEA
FFDA
0003
FFF5
FFE6
FFF5
0001
0012
0027
0024
0017
FFC8
000F
0019
0008
0022
FFE9
FFB4
0018
0000
FFF6
0024
0019
0005
000D
0011
FFE2
0027
0013
0018
FFF1
0005
0012
FFE8
FFEA
FFF0
FFF5
002E
FFFC
FFEE
000B
FFF9
0007
FFC0
003D
FFD5
FFFD
FFB6
0020
0010
0002
FFF4
002C
FFF5
FFF3
0017
FFF3
002D
FFFF
FFEE
0020
FFF7
0027
000E
FFF4
0015
0009
0014
0007
FFE5
FFD4
FFF2
000E
FFEB
FFDD
FFEC
0013
0001
0009
0014
FFFA
0008
000E
FFF8
0012
FFD8
FFFB
FFBD
0005
001A
0002
0008
0002
FFF7
0004
FFC8
0034
FFF7
0011
FFE1
FFFB
0002
0013
FFF8
0033
002D
000B
000D
0033
0021
001A
FFFD
0026
0010
FFEA
002F
0023
FFD1
FFF1
0009
FFFD
FFFF
FFE0
0006
FFE7
0039
0021
000D
0006
002C
0034
0004
0013
0007
0004
0010
FFF9
0004
FFF9
FFE4
FF97
FFC3
FFFF
FFF4
FFDD
002C
FFF0
0004
FFDB
000E
FFF1
0002
FFD7
0006
FFF7
FFF5
0002
000F
0016
FFFE
0018
FFF5
FFFB
000E
0014
000F
FFFC
0005
FFFD
0012
0016
FFE9
000B
FFF4
FFF0
FFCF
000D
0026
0001
FFEA
001B
0013
FFFC
0037
FFF5
001F
FFCB
000F
0023
FFEE
0025
000E
0011
0006
0008
0013
FFF4
FFC5
FFCA
0010
0011
001B
FFC0
001F
FFF4
0029
FFF0
002C
000D
001C
FFFB
FFE4
FFED
FFCC
FFCF
FFDC
FFE5
0014
0021
0007
FFFB
0000
001D
FFD9
0008
FFFE
FFD1
FFEF
FFFB
0006
000E
0010
0035
003E
0017
000B
003F
FFE3
001E
001B
0037
FFFA
FFFB
0006
0006
FFEA
0022
FFFC
001A
0003
FFDE
FFEF
0011
0029
FFF6
0018
0003
FFFB
0015
FFD8
FFCB
000F
001B
0015
0026
0022
FFFF
FFB5
FFE7
FFED
0003
000C
FFE7
0026
FFC9
FFEC
FFE9
FFF7
0002
FFF4
FFC7
0000
FFFC
0013
0016
0011
0000
002F
FFE6
0012
000C
0010
FFFA
FFF8
000E
FFCC
000B
FFF7
0016
000D
FFE7
FFE8
FFFD
0054
0036
000B
0011
001E
002F
000A
001E
FFFA
0028
0027
0026
FFE5
FFDF
FFF1
FFE9
FFED
0008
000F
FFC7
0023
FFEE
FFD6
0026
002E
0004
FFC5
0009
FFEC
FFCD
000C
FFFF
0020
FFEF
0008
FFB8
0027
FFF8
002B
0042
FFF1
0042
001F
FFF6
FFFB
002A
FFFE
FFFD
FFF6
0015
0028
FFF0
0042
0008
0007
0015
FFF5
FFDE
0003
FFD7
0007
000B
FFFC
FFE1
FFFE
0004
FFFB
000E
FFDD
0035
002F
FFFC
FFD6
0001
FFEE
0007
0002
0007
FFE0
FFDB
FFEA
FFFC
001A
FFD1
FFF9
002F
0003
FFDB
FFFC
FFFE
0014
FFF7
0044
000C
001D
FFEE
FFBF
001A
FFE9
0031
FFEB
0030
FFF4
000C
FFFA
0043
000A
FFE9
0006
0038
FFFD
FFF1
005C
0014
FFEE
0009
FFD3
0039
0021
FFD1
FFF7
0006
FFEC
001D
FFFC
0030
FFBF
002E
FFCD
0016
000C
FFF3
000D
FFE1
000A
FFE6
FFEE
FFDA
0008
FFE3
FFF5
0024
000D
FFDD
0005
FFFB
0042
FFEA
0009
0004
FFE7
0011
0007
0024
FFEA
0000
FFC1
FFDC
FFFE
0009
FFFA
0013
0007
FFFC
0012
001B
0014
0007
FFC5
0019
001B
0006
0003
FFEE
FFFD
0009
FFD5
002D
0021
000D
0011
0003
FFF4
FFF9
FFEB
0026
0015
001B
FFFE
0015
0007
0017
0006
FFF1
0020
0012
0027
0010
FFEC
FFDD
FFDC
0006
FFF9
0031
0013
FFFC
001D
0017
0008
000F
004A
0004
001A
002E
0019
FFF8
0017
0001
FFE8
0030
0026
FFB1
FFBA
0011
FFEC
FFD5
0039
FFD8
FFF9
FFF7
FFDE
FFE4
FFC0
FFF8
000F
FFE6
FFEC
FFFD
0010
000F
FFAE
0026
0014
0013
FFF1
0006
FFBA
0015
FFAA
0012
FFE8
FFFC
FFD3
0027
FFDC
FFF5
FFE3
0029
0040
FFF0
002B
0011
0011
002C
0041
0032
FFEF
0004
FFF0
001B
0003
FFF2
FFF2
0007
FFC1
0016
FFD7
000F
0001
0005
0005
000A
0001
002B
FFFE
FFEF
002C
001B
FFE8
0003
0044
0011
FFE6
000C
0038
0015
001B
001B
0020
003F
FFF9
0023
FFEF
FFE4
0017
FFF1
0018
FFFD
FFE2
FFF6
0002
0029
FFED
FFEF
0024
0019
0008
0037
0019
FFF6
FFEE
004E
0004
000A
0003
FFFA
FFF5
002B
FFFA
000A
000A
FFE5
FFFA
FFF6
FFD5
0014
0010
FFF7
FFC6
001C
002D
0005
0005
FFDD
0007
000F
0016
FFF6
001C
FFDE
FFFA
0009
000D
FFEF
FFCF
FFE9
FFFF
FFEA
000A
000E
0027
0024
FFF5
0003
0028
001A
0000
FFF8
FFE7
FFE3
FFE4
0014
FFE5
FFF4
FFDC
FFDF
FFBB
0012
0007
001C
0000
FFEC
0026
FFC5
FFDA
0016
FFE7
FFEB
001D
000B
FFFC
000A
0018
0025
0013
001C
0027
0014
FFFE
FFE3
FFF9
FFFD
FFD2
002D
FFFE
0004
FFC7
FFF0
000A
0004
FFF1
0003
FFC9
000E
0019
000C
FFF0
000E
FFF4
FFF3
0007
0000
0026
0011
FFE5
000B
FFE7
0000
0002
0004
0003
FFF9
0007
000D
FFFB
0016
FFF2
FFF3
0001
0023
FFFC
FFD2
FFEB
0007
FFFF
FFEF
003F
FFFE
000E
0014
0015
FFFD
FFE5
FFFD
FFE3
0022
000D
FFF4
0000
0004
0001
FFEC
FFD7
0013
0025
FFDE
FFF5
000D
0023
0023
0017
0008
0001
002E
0008
0026
001A
0013
001C
FFF2
0001
000E
FFED
0018
0002
FFDF
004E
0011
0031
FFFF
0023
000D
000B
FFD2
000C
0017
FF91
0005
FFF5
FFF4
FFFD
000F
FFD1
0004
FF90
0004
FFE7
0008
0011
FFEE
FFE8
FFE2
FFEB
0015
FFD3
FFF4
000D
0019
0017
0031
0033
0031
0006
000C
0018
002B
FFEE
FFCE
0003
0006
FFB7
FFFA
FFD9
FFF8
0007
003D
0021
FFF6
FFE6
001A
FFD9
FFEE
0023
FFF2
FFD8
0000
0006
000C
FFEF
0014
0071
FFFD
0022
0003
FFFC
0028
FFEC
000F
FFE7
000B
002A
FFE5
0003
0024
0004
000C
FFF7
002A
0012
FFB3
FFE4
000C
FFF8
0006
003B
FFF7
0009
0047
001C
001E
0001
FFFB
003B
002F
0011
0000
0016
FFFD
0014
0003
FFF1
0000
000E
FFE6
FFB1
FFFC
0030
FFEC
000D
FFE0
000B
0013
0028
FFF8
0029
FFF0
0001
FFFF
003A
FFE8
FFD4
0006
000B
FFE6
0033
000F
000D
002A
FFFE
FFF5
0021
0003
0003
FFF5
0038
002C
0021
0007
FFC2
0056
002B
000D
0028
FFF1
0000
FFD4
001C
0005
0010
FFBC
0034
FFAB
FFB7
0007
FFE1
FFE1
FFEF
FFDA
FFB5
FFCE
0009
FFF7
000D
FFF6
FFF9
0003
0013
000F
0010
FFF8
FFF8
000F
0036
0031
001F
0000
0032
001E
0029
0027
FFE8
0004
FFB6
FFF2
FFDB
001A
002A
FFF4
FFF5
0007
FFF3
FFB6
FFED
FFA3
0013
FFEC
0006
FFF9
FFF8
0023
001D
002E
FFD6
000C
0016
FFE9
FFF2
0033
0014
0011
0018
000E
FFC6
0016
0008
FFBD
FFF3
FFFB
FFFB
0004
000C
FFDC
FFE5
0005
FFF7
0033
000B
0008
FFF1
001E
FFE1
0022
FFE0
0029
000D
0012
000A
FFF6
000B
000B
0021
0007
FFCC
0028
000F
0000
FFEA
FFCF
0020
0004
FFF3
0008
0012
FFFE
FFF0
FFF8
0012
0028
0013
0003
0019
000C
002E
0022
0013
FFEE
0015
0020
FFFC
001F
0001
000F
FFFB
0007
FFEA
002F
FFE9
FFD8
FFF7
0019
000B
0004
000B
0035
0004
000B
0003
FFF2
FFF4
000E
0000
0007
0002
0038
FFED
FFF7
0032
FFE6
FFF9
0011
FFEF
FFDF
FFF0
FFF2
0047
FFE4
0024
FFEA
FFE9
FFFC
FFD0
0006
0024
0009
000F
0007
FFCC
0004
0022
FFD3
FFF7
0015
0019
000A
0005
FFFD
FFF8
0007
0034
FFFB
FFE0
0008
FFE9
0027
0012
0025
0034
0021
FFEE
0020
FFF3
FFFD
FFF3
0027
FFDA
FFF9
0030
0022
001C
0008
0005
0012
FFEC
FFD1
0017
000B
003E
0021
000D
0024
FFB5
0002
FFF3
FFE1
000F
FFDA
0005
FFF0
0028
0001
FFC7
FFD5
FFFA
0001
FFF3
FFE5
FFEB
FFD5
0006
FFEF
FFCE
002B
FFE6
FFEA
001E
0013
002E
0026
FFF7
FFFB
0004
0013
0005
0012
002C
0006
0010
FFF7
0001
0004
FFFC
0006
FFC2
0015
FFE1
FFB0
FFA9
0009
000D
FFEE
0028
002B
0001
FFFD
0018
0010
0023
FFD7
0003
0015
FFF7
002E
0014
0010
FFE7
FFF2
0012
0004
FFEA
FFB4
FFFB
0027
FFDC
FFE8
FFF1
FFEA
0009
0003
002A
FFFA
002C
000F
FFFA
0014
FFE3
000C
FFF7
0029
002A
0012
0010
FFCA
FFF4
0018
0006
FFE9
0017
FFF0
FFF2
000D
FFDF
0010
FFEE
FFF6
0016
FFFB
FFF4
FFFF
002F
000C
0002
005B
0022
FFF7
0021
000B
FFCC
001B
0020
0016
0013
FFDF
0015
FFFC
003D
000D
FFF6
FFBD
0023
000B
0015
0015
FFFA
0019
0000
0023
0009
FFFA
FFE1
FFDC
0014
0002
0015
FFFE
002A
FFE2
FFF3
FFF6
0038
FFF4
000D
FFC3
0002
FFF7
FFFA
0003
FFFF
FFFD
FFEF
FFF4
FFF4
FFEF
0002
0003
FFE7
0002
FFE2
0000
0003
0000
FFF0
0000
FFFB
FFF4
FFE9
0010
FFF1
FFF7
0005
FFF4
0016
FFEA
0009
FFF0
FFEB
FFEB
FFF1
FFEA
FFFF
0009
FFF8
000B
FFFC
0000
0009
FFFC
FFF1
0007
000D
FFED
FFF1
0002
0000
0000
FFE8
FFFD
FFEB
FFF4
000C
FFF8
FFEC
FFED
FFF7
FFEC
0011
FFEE
000B
FFEB
FFEA
FFEA
FFF2
FFFB
FFF5
FFFE
0006
FFE9
FFFB
0014
FFF2
FFE9
0001
FFF5
FFFE
FFF9
FFEC
FFE9
0010
0016
FFF7
FFF2
FFFA
FFFD
0007
FFEF
FFFE
FFFD
FFF0
000D
0015
FFF9
0010
0005
FFF2
0008
FFFF
FFF0
FFEE
0002
FFFB
FFF5
FFF2
FFF4
FFF5
FFE4
FFEB
0000
0003
FFF1
FFF8
FFEC
FFEF
FFFB
FFF4
FFE8
FFF2
FFF4
FFF4
FFF1
FFF1
FFF3
FFE8
000A
0002
0029
FFEA
000A
FFD9
0010
FFC2
FFF9
000F
FFC2
0007
002B
FFD4
FFFD
FFF6
FFFC
0028
FFC2
000C
FFC4
002B
0000
FFFD
FFF2
0008
FFE3
000E
FFF7
002B
0014
FFE4
0023
001B
FFFB
FFF1
000B
0014
FFF1
FFC0
FFE4
0013
0005
FFCB
FFDD
000C
FFFF
001F
FFDD
FFFE
FFE3
0029
0007
0001
FFE8
0008
FFF0
0000
FFFD
FFC3
FFD4
FFE3
000C
000B
0017
0001
0025
000E
0001
0000
FFD9
003C
FFE1
0009
FFFD
0013
0026
FFE3
0003
FFFC
0016
0005
000C
0031
FFFF
0007
000B
0028
0003
FFDF
0020
0005
003E
FFF1
0010
FFED
FFD6
FFF3
0004
FFFF
0009
0019
FFD3
FFFC
0000
0017
0016
FFF2
0018
FFD8
FFF4
FFF8
FFB0
FFD6
0001
000B
0013
FFF0
0022
FFFC
FFBE
FFFB
FFF7
0021
FFEB
002C
0002
0003
FFFF
FFDF
004C
FFFE
0000
003A
001D
0002
0001
0008
0023
0020
FFF8
0037
000B
FFEF
FFC7
002A
FFF0
0025
FFE2
000C
FFBB
0001
0005
FFED
FFE8
FFF0
001F
001C
FFFD
FFDA
000D
FFF9
FFE8
0007
FFEB
0008
FFEA
FFC4
FFB9
000E
000B
FFE8
FFCF
FFCF
FFB6
0008
FFB8
003E
0008
FFE2
FFFB
002D
FFF8
0020
FFFF
FFEC
000C
0026
FFE7
0016
002A
001F
001D
000C
FFE1
FFF9
000D
FFF2
FFBD
0000
0008
0012
FFE8
000F
FFD5
0013
0030
002A
0003
FFFB
001F
0042
FFF1
FFFE
FFE4
FFE1
0002
FFCD
000A
0016
0028
001B
FFFB
0008
000C
0017
FFEC
003D
0000
FFEA
000A
0039
FFF4
FFD8
FFE1
FFF3
FFE8
FFBC
0019
FFF7
FFDE
FFF5
FFF4
000F
0001
003E
003F
0035
FFF2
FFFF
0022
0027
FFF0
0015
FFDF
FFE8
FFE6
FFFF
FFB8
FFF6
FFFD
FFF6
FFE9
0010
FFF8
001A
FFFA
0000
FFFA
FFD9
FFFB
0018
0001
FFC1
FFE5
0006
FFF3
0017
0019
FFCD
0014
0000
FFFE
0011
0013
FFE4
0000
0001
0000
002F
003F
000C
0035
0014
FFFD
0021
FFF9
003B
FFEB
0007
0036
0008
004B
0001
0028
FFDD
0015
FFEC
0008
0006
0009
FFCC
FFE3
FFF0
000B
FFD2
0021
0034
FFD1
FFE8
FFFA
0009
FFFA
0005
0003
0028
0015
002D
FFFA
FFFA
0007
000C
0015
FFF8
FFF2
FFEF
0009
FFF0
FFD5
FFF9
FFEA
FFFD
002C
FFF6
FFF2
003A
FFF9
0007
FFC8
0003
001A
0010
FFF2
000E
0006
000B
001A
0001
FFF0
FFC1
FFF1
0003
FFEB
0015
0003
0044
002F
0007
0025
FFCF
0039
002F
FFFD
0002
0000
FFEB
002C
FFE2
0011
000E
001A
FFDA
0024
0003
FFF7
001A
FFD2
0014
0016
FFC3
0016
FFF3
0006
FFFD
FFDC
0041
FFEB
FFDC
FFF7
001D
0052
FFD9
FFFC
001E
FFE4
0000
001A
FFCA
0003
0011
FFF5
FFFB
0008
0003
FFE8
FFF1
FFCE
0036
0018
0003
FFF5
FFFD
FFEC
0032
003A
0007
FFFD
0033
FFFF
0008
004D
001C
0024
FFE2
0042
0021
FFF6
FFEB
FFF3
FFC3
002E
FFFE
FFE6
0009
FFD7
0004
FFD6
FFCA
FFE3
0004
FFFD
0012
0005
FFFE
0038
FFD6
0013
FFA6
000A
000E
0036
000D
FFE9
FFF4
0012
0001
FFD6
0010
0010
0005
FFFC
001D
FFF2
0010
0003
0002
000A
001C
FFF0
FFFE
0002
FFF9
FFEF
0012
0026
FFF7
0022
000E
000F
FFEC
FFEB
0011
005C
0036
FFEF
FFF3
0008
FFB8
0033
0020
001B
FFF2
0002
0008
002E
0017
0018
FFED
FFF1
FFC9
FFF3
0025
001E
0000
FFBD
0017
0011
FFFB
0027
FFF9
FFF1
0015
000D
0021
001D
000B
0001
001E
0027
FFD1
FFFF
0032
FFC0
0008
FFDF
FFC5
0010
FFF7
000F
0009
FFDD
FFE1
FFEF
0019
FFF7
0019
000E
0005
0030
0011
FFF5
0026
000D
0010
FFFB
003C
FFFF
FFF4
0017
002C
0000
FFFE
0031
000D
FFF0
000C
FFEE
FFEF
001F
FFDF
0005
FFC5
FFFC
0049
FFCB
0008
FFE9
0007
0011
000B
FFFB
000F
0016
0021
FFFA
FFA3
FFFD
FFF0
0011
000D
FFD6
FFFE
FFF9
FFF1
FFCF
0012
001C
0004
002E
FFF9
FFF1
000C
FFF0
0016
FFF8
0016
001A
0006
0012
0010
000C
001C
0004
0018
FFE0
FFA1
FFFD
0000
FFF7
FFF2
0000
0027
0007
0018
FFF7
FFAB
0022
0039
000F
0020
FFFC
FFD9
0011
0016
FFF1
003A
0019
000C
FFE8
FFFC
0012
0012
FFEF
FFF4
FFEE
0007
FFF4
000A
000D
FFFC
FFF6
FFED
FFE7
0007
0013
FFFE
FFFE
0000
0011
FFFB
FFEC
FFEF
FFEE
000A
FFF2
FFEE
FFF1
FFFE
FFFC
000D
FFFD
FFF6
000E
0004
FFFC
0016
FFFB
FFE9
FFEE
0009
0002
0002
0008
000C
FFF2
000A
FFEB
FFE8
FFF2
000C
0009
FFE4
FFFB
FFF8
FFEC
000A
FFE9
FFEB
FFFF
0004
FFF6
FFE3
FFF3
FFFC
0006
000D
FFEE
FFF1
000D
FFF6
000C
FFE7
000E
FFF3
FFE9
FFEC
FFE8
0011
FFE4
FFE5
FFF3
0014
FFEE
FFEC
000F
FFF3
FFF1
FFE4
0000
000D
FFF8
FFF0
0007
FFFC
FFF1
0014
FFED
FFF5
0011
FFEF
FFFD
FFF8
0008
FFE8
000E
FFF2
FFE8
0000
FFE5
0003
0009
FFFD
0006
FFF6
FFF7
FFFA
FFFA
FFFD
000C
0015
0004
0014
0003
FFFF
FFEA
FFFE
FFEC
0000
0000
FFEC
000A
0005
FFE3
002B
0021
FFFC
FFFD
FFD2
003E
FFF9
FFFC
001F
FFEC
001F
FFEB
001E
FFFE
FFFF
FFE4
FFE2
FFFF
FFCF
FFF9
FFC1
FFEA
FFFB
FFF4
FFE5
FFDC
0010
FFC9
FFFF
0007
FFFC
0028
0003
0001
0060
FFBD
FFD1
FFFF
FFE9
FFE7
0010
000F
0064
000F
FFE3
FFE0
FFE5
0013
FFDA
FFF0
0010
FFD7
FFFF
0017
FFB7
0017
FFAE
FFCE
FFD2
FFA8
000C
FFDF
FFEC
0001
FFF8
FFEE
0031
FFF0
001F
FFF1
FFF5
0005
FFED
0037
001F
0025
000E
FFEA
FFB2
FFF4
FFF3
000C
FFD5
FFF9
FFF8
FFF0
FFEB
FFEE
FFA6
FFEB
0006
002A
000D
FFF7
FFED
0016
FFEE
0001
FFD6
000C
FFE4
FFDE
FFFE
FFF4
0030
002A
0028
0018
FFA9
FFC8
FFEF
FFF9
FFDF
0005
0022
0001
000F
0014
FFDB
002B
FFB1
001A
FFFE
FFF6
002B
0019
FFF8
0007
FFFA
0029
FFF0
FFF7
000A
FFF2
FFF7
0011
0014
0002
FFF2
FFE9
0019
FFF1
003F
FFC7
0024
FFEB
FFFA
000B
0017
FFE2
FFF1
FFE4
FFF5
000F
FFDE
0044
0001
FFCE
0004
FFEE
000D
FFEF
FFFC
0017
0013
0011
0042
0026
0010
FFFF
FFEF
0015
0026
FFEC
000C
0009
FFE0
000A
FFE4
FFFE
0001
FFF6
0002
FFAF
002B
FFE1
FFE8
0012
0006
0011
000D
0008
0025
FFBB
FFDA
0035
FFD9
0006
001B
000C
FFFD
0004
0005
0013
0003
0004
0002
0013
FFF2
FFD3
FFDD
000F
FFD6
FFF8
001F
0016
0017
000F
0012
0028
FFF0
FFFE
0016
0017
0021
000D
FFCB
002D
0000
0033
0005
0007
FFC6
FFED
FFF4
FFD9
FFFD
FFF8
0007
0008
001E
000C
000A
FFCB
0006
0009
002E
FFE6
000F
FFF2
0000
0017
FFEB
0025
0008
FFE1
FFE4
0012
FFDD
0000
0001
0026
002B
FFD7
003E
FFFF
000A
0031
004D
FFC4
0022
002C
004B
001D
FFFD
FFFA
FFF2
0007
0012
0001
0034
0006
000A
0016
0016
001D
FFF2
0007
0015
FFED
0005
FFC4
0005
0011
FFA1
0017
FFEF
001C
0022
FFBC
001D
FFCA
0026
FFEE
0028
0005
FFE4
FFF5
FFCE
FFEF
FFDB
FFF3
FF98
0026
0019
FFF3
000F
002A
0001
FFFC
FFDC
0000
0004
FFDA
0036
0019
0015
0014
0005
0057
001E
002F
FFFA
001C
0003
0001
FFF4
0013
FFD8
0009
FFC7
0026
FFF7
003C
FFF2
0007
FFF4
FFF5
FFF1
FFFA
0005
FFEA
FFFE
FFDC
0013
0021
0007
FFFA
FFED
003A
FFF5
000A
FFE0
FFD3
001D
FFF9
FFEA
0026
FFC2
0018
0062
FFC5
0011
0008
0034
FFDC
FFE2
FFFF
0000
0028
FFAA
FFFB
FFF7
FFEF
FFB5
002D
0006
FFF1
FFF5
0010
0009
FFF1
0064
FFF9
FFEA
FFDB
0043
0023
0030
0020
0025
0016
0014
FFEC
000D
FFC8
FFF0
FFF2
0022
0005
FFB6
0020
0002
FFD5
FFF1
FFEC
0007
000E
FFF1
002F
0004
000C
002F
001B
0001
FFD5
FFE6
0019
0032
000B
0008
000B
0013
0006
FFEB
0011
FFD5
FFFC
0034
FFD0
0013
000F
FFF6
0011
000A
0008
FFEC
FFEB
0015
FFC8
FFD5
FFFA
0008
0001
0004
FFEE
FFF1
FFF3
0023
002B
FFFF
FFFE
FFFD
000A
FFF1
FFF8
FFE4
0009
FFF5
FFE6
0011
0038
002E
0004
FFEB
FFFA
0001
0014
FFD5
FFF6
FFFF
0025
0022
002B
FFCF
000C
0001
0012
FFFC
FFDD
FFE5
FFAB
0038
FFFA
FFD9
0019
0036
0012
000F
0000
0004
FFEF
FFE5
FFF3
000B
0014
FFD3
0022
FFF7
0000
FFF9
0002
FFA9
0005
FFE0
0001
0020
FFF7
001C
FFF9
0003
FFEF
0020
0027
000B
FFE8
FFFF
0043
FFFB
001D
001F
FFF3
001D
000C
001C
FFFA
003C
FFF0
FFEE
FFE0
FFE2
0018
FFF5
003D
FFED
0002
FFD0
FFE5
002C
000A
FFFC
FFD7
001E
FFF5
FFD9
FFF9
FFFB
FFFD
0010
000A
0064
FFFA
0009
FFFD
FFAB
FFF2
FFEA
FFD7
0004
001C
0009
0026
000B
0010
000B
FFF7
0019
FFF9
0011
FFAA
001C
0003
0026
000B
000C
0011
001A
0016
0010
FFFA
001D
FFFD
FFFD
0031
0014
FFF0
FFFB
FFDC
FFEA
0029
0009
FFF2
0001
FFE0
000E
0003
0000
FFE1
0012
FFAD
001D
FFFA
FFCF
FFE2
0019
0013
0035
FFF4
FFEB
FFE5
001B
000F
0026
FFFA
0018
0016
0020
0017
0017
0015
FFFB
FFF6
0004
0007
FFD4
001D
FFED
FFCF
FFF4
0012
FFEC
0002
FFF8
FFEE
FFFC
0004
FFDA
000E
FFEF
FFF5
FFED
FFE3
FFE7
FFFC
FFF5
001F
FFE4
FFF9
0025
000B
0001
0014
0003
FFF6
FFEB
0026
002F
FFDE
FFDE
FFD8
0002
FFFE
0012
0016
0009
0011
001D
000F
FFF6
FFB7
FFFB
001C
FFC3
0005
FFF6
0006
FFC1
FFF8
FFC0
0014
0014
FFFC
FFF1
0000
002F
0010
FFEF
FFFA
FFE9
FFDE
FFED
0001
FFF1
0013
FFFB
000C
FFF9
FFE0
0002
FFF5
FFF3
FFF6
0014
0003
FFAF
FFA5
FFF0
FFDF
FFC2
0003
000F
FFFA
0019
FFF2
FFFC
FFD2
FFD6
FFD4
FFDD
0006
0016
0009
0011
000E
FFF9
FFA5
0006
FFC6
FFED
FFE8
0006
0019
FFFE
FFD5
FFEE
FFE0
FFE3
FFFE
FFD9
FFD7
0014
FFEA
FFF3
FFFD
001B
0002
FFF1
FFCF
FFED
0009
0017
0010
FFEC
FFED
FFFE
0000
FFFC
FFFB
FFE7
FFF3
FFE7
FFFE
0009
FFFA
FFFC
FFF5
FFF7
0012
000E
FFFE
0000
FFEC
FFFB
FFE5
FFF2
FFE4
FFFF
FFFB
0001
000F
000E
FFEF
FFF2
FFF5
FFFB
FFEE
000A
FFF0
0008
000A
0013
0008
FFF7
FFFF
000C
FFFF
FFE5
FFFE
FFF0
FFE8
FFF9
0002
0011
FFFB
FFF4
000B
0008
0009
000B
0002
0002
FFF1
FFE8
FFEE
FFF4
FFF2
FFFF
FFEC
000A
FFF0
FFF5
FFF4
FFE8
FFEC
000C
FFE3
000C
0006
0003
FFFA
FFEC
FFFD
0003
FFF0
FFEC
0010
FFED
FFF6
0004
0009
000A
0012
FFFD
0006
FFEF
0008
000A
FFF9
0009
0000
0006
FFF0
FFF9
0008
0008
FFF0
FFFA
FFEE
FFFA
FFE9
0002
0006
0003
FFFC
000F
FFF2
000E
FFE6
000D
FFFF
FFE5
FFEF
0001
FFFB
FFF6
000A
0011
FFED
000B
FFEB
FFF2
FFF6
FFEC
001E
000A
FFFC
FFD5
0024
FFCC
FFF6
0013
FFDE
0011
0012
002B
FFF8
0009
0012
002B
FFD1
FFF7
FFBA
002A
001C
0022
FFE9
000D
0002
FFF2
000E
001C
0032
0008
FFF7
0014
0016
FFF3
0037
0005
0001
FFE7
FFEB
0006
FFF9
FFD2
FFDC
FFE2
FFE9
0014
FFF4
0039
FFDF
0015
FFFC
000C
0010
0009
0000
FFD2
0001
FFBE
FF8F
0006
000D
0003
0003
FFFD
001B
0002
FFF8
FFFE
FFE3
0013
FFF4
FFEF
000C
000E
0021
0004
FFF0
0035
0015
0000
0031
FFD2
001A
FFED
004A
0001
0002
FFF6
0035
0020
001A
FFFC
FFF6
0011
FFB6
0017
0005
FFE2
0003
0014
FFD2
FFBE
002C
FFDE
FFD7
FFFB
FFF9
0020
0016
0017
FFC0
FFA7
001A
0031
0018
FFE2
0032
FFED
FFD3
FFF7
FFE9
0004
000E
0016
0002
001F
0013
FFF8
0016
0004
FFF5
0007
0011
000E
FFF0
FFC8
0003
FFB9
FFFA
FFE7
0003
FFEF
FFCB
0014
002B
FFD0
FFBE
001C
0027
0050
FFED
FFF8
0048
0009
002E
0057
0031
0015
FFFB
FFD2
FFEF
0001
FFE3
FFEB
FFFB
FFEA
FFDA
FFFD
FFFE
FFBB
0035
0034
FFD7
FFC0
000D
0007
FFE5
FFFC
0013
FFCF
FFF8
003F
FFBB
FFFE
FFF0
0033
0004
0017
0029
0018
0026
FFFC
000E
FFF5
000C
002B
0006
000D
FFED
0036
FFF6
000E
001E
0014
FFE2
0026
000B
000B
0060
FFEC
0010
FFF5
0032
FFED
000A
FFF8
000D
0001
0018
FFCE
FFFC
FFF8
FFD8
FFF6
0001
FFCB
001F
FFE2
0010
FFD3
001D
0032
0037
FFFD
FFD2
0016
FFE5
002D
FFFB
FFF7
FFDB
FFF2
000C
FFE9
FFDD
FFE4
FFDF
FFFE
000C
FFD7
0034
0015
0027
FFF7
0015
002C
000F
FFF9
FFF1
000E
002D
0005
FFF5
FFDA
0008
FFF6
0016
0016
0001
FFF2
FFF7
0009
FFD6
0027
FFBC
0019
FFBE
FFD2
FFFE
FFDF
0014
001A
FFC8
FFE6
0037
0021
002F
0011
FFCF
FFF3
FFF7
0008
0007
FFF9
FFFD
0001
0000
001D
FFCD
0011
0017
0048
FFD8
001F
FFF3
003B
000E
FFEB
FFED
001C
002E
0029
0003
FFDC
0000
FFE9
FFDF
FFD5
FFF2
FFFF
0023
FFFD
0006
0001
FFEE
002D
0028
000C
000E
000C
FFFE
FFF3
FFE9
000F
0016
FFF0
0015
FFB9
FFF9
001A
FFE1
FFE0
0014
FFDC
003E
0015
001D
FFE2
FFF1
0013
0000
0001
FFF9
000D
FFFD
0010
0015
FFB3
FFFE
0017
FFEC
FFF6
0009
FFE4
0002
000F
FFEE
FFCF
0012
0010
000D
FFC7
0011
001F
FFCC
000E
FFDE
0044
002E
0013
FFD4
0016
001E
0002
0008
0010
000E
002E
FFF6
FFE5
FFFF
001F
000F
0006
FFC4
0002
FFFC
0012
FFEF
000C
FFF7
FFEB
006D
FF95
001B
002C
0008
FFF3
0013
0009
0024
FFEC
FFEF
000F
FFFD
FFE8
0007
0002
001B
0016
FFFB
0033
FFF6
FFBB
FFFD
FFF6
FFD5
0004
FFEE
FFF6
000C
FF8E
FFD6
FFF5
FFFA
002F
FFF3
0021
0002
000E
FFFD
001A
001E
0002
002F
0010
001C
FFF5
FFD8
FFF5
0016
FFD7
002B
FFB4
001E
0031
0015
0001
FFB3
FFEC
001B
FFF9
FFD6
FFF4
FFF2
0006
0026
FFFE
000A
0015
FFFA
0014
FFE0
0011
FFF5
001C
FFF8
FFF8
FFFA
000F
FFF8
000B
FFEA
FFE7
0011
0019
FFB5
FFFF
FFFB
0003
000B
FFEE
FFED
FFB0
0058
FFFE
FFCB
FFF8
FFF2
0024
FFE2
005D
FFB3
FFF7
FFE2
FFF9
FFD1
0009
FFE9
FFE5
FFD9
FFF8
FFE5
0006
0014
FFF8
FFF2
0020
0010
0020
FFD8
FFFE
FFF7
0005
000D
0015
002E
FFC9
000F
FFF8
006A
FFE6
0025
0036
0013
0034
0003
FFE6
FFEB
001A
0003
FFD1
0000
FFEA
0022
FFF0
FFF9
FFE9
0012
FFED
000F
000F
000B
0007
0000
000B
0000
FFD0
0003
FFE8
FFF8
000E
FFF4
001D
001A
FFF7
FFFF
FFD5
FFF5
0036
0001
001F
003B
0016
0020
000D
FFF4
0000
000C
0009
0014
000C
FFDF
FFF8
FFF4
0003
0012
000A
FFF2
FFDE
0013
0015
0006
0024
FFE8
FFF3
0009
0008
0012
0039
FFED
0009
FFD9
0003
FFFC
FFF3
0009
0001
FFF8
FFF6
FFF3
0004
0013
0038
FFEC
FFF0
000B
0006
000F
0025
FFD1
FFDE
000F
0041
FFEC
FFF6
FFEB
0026
0018
FFEE
0010
FFF2
000D
FFCE
FFF1
000A
0005
FFE6
FFE4
0012
002E
000F
0018
004B
0000
000B
0011
FFF3
0031
FFD6
0007
0004
0001
FFE8
FFEB
FFEC
FFFA
FFEF
FFA4
0014
0008
000F
000F
FFDD
FFF6
FFFF
0007
FFBF
FFE9
000B
0028
0023
0005
FFFC
FFF8
0002
FFF0
0009
FFBD
FFDE
FFFA
FFDB
000F
000F
002C
002F
FFD4
0003
FFF0
000E
000A
FFDE
000F
001E
0008
0026
FFF2
FFE3
0036
000F
FFE5
FFCF
FFF7
0009
0010
FFFF
0018
FFD3
001C
002A
001E
0028
0000
0017
0014
FFFB
001E
0000
0007
0017
0038
0000
0010
FFF7
FFF7
FFDB
FFF0
FFE0
002B
001C
FFCB
FFE4
FFEA
FFF3
FFFD
0014
FFFF
0034
0009
FFF8
0010
FF92
0001
0011
0019
0013
FFF0
FFF0
0005
0021
0015
FFE1
FFF7
FFD9
0005
FFC1
0010
000B
FFBE
FFEA
001B
FFF5
002E
0000
000D
000E
0001
0022
002A
0002
0017
0031
FFF2
002E
FFEF
0040
FFD8
0020
001A
0033
0005
0004
000E
FFB9
FFEF
003B
FFD6
000A
0006
FFF0
0004
FFEB
0039
0002
FFEB
0018
0022
003E
FFF4
FFE2
FFFF
FFF8
0053
0006
FFE8
001C
FFD9
0030
FFED
FFF8
FFD9
FFF3
001A
004D
FFE8
001B
000B
0022
FFEA
003B
000D
000B
001E
0013
0017
FFAE
0016
0019
FFDD
0018
0004
0013
0034
0002
0016
FFFD
FFE8
0033
000E
FFF1
FFE8
FFEC
FFFB
0012
0012
000D
FFD9
FFEA
FFCA
0002
FFFE
0015
0004
000F
000B
001D
0005
FFEC
FFF2
FFFB
FFFB
0010
0019
0009
0005
003D
FFD4
000E
FFEE
0029
FFDA
FFDB
000A
FFF9
FFF6
FFFF
0014
0023
FFFF
FFC8
000E
0000
FFFD
0004
0043
0031
000F
0002
FFEC
FFF2
0009
0023
FFD3
FFFF
0019
0020
FFFF
000A
0002
FFF5
FFE0
FFEC
FFF0
000A
FFDF
0015
000C
FFB6
000A
FFFA
0027
FFE4
FFEB
FFF3
0054
0007
0016
FFF8
FFEF
002F
FFD5
000D
001A
FFD7
000C
FFFF
0019
FFEF
FFEA
FFF6
FFCD
0012
FFEE
FFF6
001C
0025
FFF2
FFDD
0034
FFF2
000B
FFC9
001F
FFB0
FFF4
FFED
FFF7
FFFF
000D
0003
FFEB
0007
FFF3
0025
0033
0010
000F
FFD9
FFDC
0007
FFF9
0000
FFF9
001F
0033
0010
001E
001D
FFFC
FFE2
FFF1
FFE4
FFC0
FFCE
000F
FFF1
0000
0035
FFFC
FFEA
FFF5
FFF5
001F
0018
FFE3
001E
FFB4
FFD7
0013
000E
002C
0004
0012
FFDE
FFFE
0016
0009
002F
FFCC
0028
0037
000B
FFFD
0020
FFEA
FFE4
0016
005B
002E
0014
FFF9
FFF2
0003
0006
003D
FFFC
0031
FFFD
FFFE
FFE6
001F
000E
FFF6
FFF2
0023
FFFC
FFF3
002F
0001
0019
FFFF
0020
FFF2
FFFE
0017
001A
000E
FFDF
0003
0026
0039
FFCB
0020
001B
0030
001B
0012
FFF6
0018
000D
FFF8
FFF2
FFF5
FFBE
000D
FFC0
FFE8
FFFC
FFF7
0004
FFF4
0025
FFEE
FFF9
000F
0002
002A
0010
FFEE
0005
001A
0004
FFEB
0014
000E
FFF0
FFF0
0028
FFED
0026
0006
002D
0024
FFE9
0014
001B
000D
000D
000A
0002
0017
0002
0029
0025
0002
0056
FFFA
0016
0005
FFF7
FFF8
001F
0002
0011
0033
FFB2
0001
FFFE
FFD2
FFF2
0007
0000
0005
000F
FFF2
0003
FFF0
FFFA
FFEC
FFF3
0009
FFDB
0002
0007
0033
0000
FFED
FFF9
002D
0000
0005
FFF9
FFC8
FFF7
FFD1
0024
001D
FFE6
001C
FFF9
FFFC
FFE0
FFD2
FFF8
003C
FFD7
0010
FFE6
000B
FFFD
0009
0002
0010
0000
0011
0038
0006
003A
FFFE
001E
FFDF
0008
002F
0024
FFF0
FFF9
FFE7
0004
0034
0001
0017
0004
0015
0006
000B
FFDF
0029
FFE8
FFDA
FFE7
0008
FFF5
0010
FFC2
FFE4
FFF2
0037
0015
FFFA
003B
FFEB
002B
FFEE
0043
001E
0001
001A
0045
FFE0
0021
0003
0006
0007
002F
0017
0019
FFF3
0020
FFF6
FFEC
FFE2
0026
FFDD
0016
0008
FFFB
002A
0003
FFF6
0007
0002
0034
FFFF
0004
0017
0000
FFF3
FFF1
0007
0008
FFE1
FFF0
FFE2
FFE2
FFF3
0015
FFDD
FFF0
FFEE
001F
FFDC
0002
FFEF
0034
FFF9
FFF4
FFE3
FFF1
0014
FFF5
FFE8
FFF2
0035
0018
FFE0
FFDE
FFEE
000B
FFD4
000E
FFF4
0011
FFC1
FFDE
000E
FFFC
FFFA
0008
0020
FFEA
FFEF
FFE6
001D
FFBE
001F
001C
FFED
FFF1
000A
0023
FFDE
0005
000C
FFCA
0021
002C
FFF9
0008
FFDB
FFE6
FFFF
FFFD
FFF1
0005
FFED
001D
001A
0001
FFB5
FFDC
0026
001F
FFF7
FFED
001A
FFFE
0005
003F
001D
FFC5
FFF5
FFC2
FFF8
0009
0030
0006
FFEE
FFD7
FFFE
0008
FFF1
0006
FFEE
000B
FFCE
000E
0017
0026
0003
FFF9
0019
0015
FFFF
001F
000F
FFEB
FFFE
001F
FFCA
0026
0005
0020
001C
FFF0
0006
0001
FFFB
0022
FFC7
000D
0003
FFF0
FFF3
FFFE
002B
FFF2
FFFF
0008
0021
FFFD
001C
001E
FFFF
FFE5
001E
0010
0007
FFF8
FFEB
FFFE
0039
000F
FFF1
0010
FFB8
FFED
FFEF
FFC0
001D
0011
0008
0000
0008
FFFF
FFEC
FFEC
FFE0
000B
FFEB
0021
FFCF
FFF4
000C
FFF5
0004
003E
0020
FFE9
FFF0
0005
FFE9
FFD2
001C
003D
FFDD
FFEF
0016
0027
FFF9
FFFD
0002
FFB6
0011
FFDC
0008
FFF2
FFBC
0003
002A
FFD9
0000
FFF6
0001
FFD2
FFE9
0008
0012
FFD0
FFF5
FFDA
FFF2
001E
002B
FFF6
FFE4
0017
004C
000F
002B
0013
0020
FFEA
0017
FFF1
FFF7
FFF1
0030
0018
000E
FFE9
FFC5
FFE3
FFF3
0018
000C
FFE5
FFEF
0033
FFFB
FFEF
000C
004C
0017
FFCC
000D
FFA4
0000
FFEA
FFFC
FFFF
0021
0004
002A
FFE8
FFF2
0030
FFE5
0012
FFD8
0020
FFFF
0014
000A
FFFC
FFF9
FFEC
001E
0000
FFDA
0009
FFF8
000F
003F
001D
0002
0019
FFEC
FFE7
0029
000C
FFFA
001A
FFC8
000D
FFF1
0029
FFEA
FFF7
FFC4
FFDD
0019
0016
0027
0001
FFD5
FFEC
0033
0007
FFF4
FFDC
FFEB
0009
FFF7
FFE2
0019
FFD2
0012
000D
FFCF
001D
0029
000B
000B
000F
000D
0003
003D
0006
FFEC
004F
FFFC
FFE6
FFF2
FFA2
003A
FFE8
FFED
FFA6
0000
0006
001B
002B
FFD2
0009
FFAF
000F
0005
0010
0007
0016
0022
FFFC
001D
FFF0
0017
001D
FFFB
002C
0018
FFF9
FFBC
FFF5
0009
FFD2
FFD5
0004
0010
FFBA
0011
0018
001C
FFAA
FFF0
FFCB
FFC8
0026
FFE8
0007
0003
001E
FFE7
FFD9
000A
FFFE
0048
FFFF
001D
0020
FFF8
0008
0001
0012
FFF8
0037
001B
0031
FFE3
002F
FFF6
0009
FFFE
FFFB
0018
FFEE
002B
000F
FFF8
002E
FFF4
0001
0026
FFFA
0005
002F
000A
001B
0017
FFC5
0000
FFF6
000B
FFF0
0008
0035
FFEA
0007
FFCA
FFDE
FFFE
0043
0019
000A
FFE6
0005
0059
FFB9
0011
FFE5
FFEC
0009
0004
FFB8
FFD3
FFFD
FFFF
001A
002D
0052
0007
0014
000B
FFF1
FFD7
FFD5
FFFB
FFED
000C
0018
FFF4
002E
FFFF
0029
FFD9
FFFC
003F
000F
FFF4
0006
FFC9
FFE1
0068
0001
002B
FFE4
0005
0000
FFEA
FFDD
0011
FFE3
FFFC
000C
001D
0003
0039
FFF8
FFCA
FFFB
0010
FFF8
FFF8
FFFD
002C
FFDC
FFF6
000D
FFFC
FFD5
0001
0054
FFE6
0000
FFF3
001F
0012
0001
0004
0014
001F
0007
0004
FFF9
FFD5
0008
FFF9
FFDA
000D
FFF8
002C
0000
0007
FFFC
FF9E
000F
0017
000F
FFF6
FFEC
0005
FFF7
0032
0020
0010
FFF4
000E
0030
0020
FFFC
000D
FFF7
FFE1
FFB3
0018
000D
0005
0035
FFF6
FFF1
FFB3
0016
FFF5
004A
000A
FFEB
002C
FFF1
FFF2
FFD0
FFF6
FFFE
0024
FFAD
FFFA
0023
FF91
001B
0010
FFDF
0006
0007
0024
0012
FFCF
0002
FFEE
0000
0011
0018
FFC4
FFFF
FFFC
FFFE
000A
000C
0015
0027
0018
0008
0000
0006
FFF6
FFCD
FFFA
0006
000A
0015
FFDC
FFCB
FFF6
FFE6
FFDA
001A
FFDF
FFE6
0011
FFDD
0016
000E
FFEF
FFF6
FFF2
FFFA
0015
FFE0
0004
FFF6
FFCF
000D
0013
000D
0006
0004
FFE9
FFD8
FFDA
003A
FFE6
0005
FFEF
FFE4
FFE5
FFFB
FFFE
FFBC
0001
FFE8
FFFC
FFEC
FFF9
FFCE
FFFF
0009
0003
FFDF
0007
FFFD
FFDD
FFF3
FFF2
FFE9
FFE7
FFDE
FFE0
FFF4
0012
FFE9
FFE6
0010
FFEB
FFEF
FFE0
FFF5
FFD7
FFDF
000A
000F
FFD8
001A
000F
FFCB
0004
FFF9
FFF9
0028
0000
FFFF
0020
FFF8
FFF9
FFED
0008
FFF6
001C
FFFD
FFCE
FFCE
FFFA
0000
0002
FFFF
FFDB
FFEF
FFFC
FFCE
0005
FFEF
FFF1
FFE4
FFD8
0046
000C
FFF2
FFCD
FFC9
FFFD
FFEF
001E
FFF4
FFFC
0017
