FFE3
FFEC
FFEF
0022
001D
002D
FFEF
FFE5
FFEF
FFEC
0003
0007
0021
FFF5
FFE1
FFEA
FFEA
0018
FFFE
000C
FFF7
FFEE
000F
FFE3
FFE6
0009
FFF6
0014
0004
0000
FFFA
0009
000F
FFE7
0016
000B
000C
0009
001D
FFF8
0025
FFDC
FFE2
FFEE
0026
000B
0015
0019
FFE3
0031
0014
0028
FFF4
000D
001A
FFF7
001A
FFE9
FFF9
0011
0021
0012
FFD7
000C
FFE6
FFEB
0020
FFDE
FFF5
001D
000D
000F
FFEC
0023
FFF3
0014
0005
FFEA
FFFA
FFF4
0036
000F
0027
FFF4
