FFED
0007
FFF0
0024
000F
FFDE
FFB8
FFCA
000F
FFDE
002C
FFFC
003A
FFF5
0038
FFD3
FFF8
FFFF
FFCD
FFE4
FFF4
0008
FFB9
0019
FFEE
001F
0009
FFD9
FFF7
FFE2
0021
FFD1
FFA6
FFB1
FFCD
FFE7
0009
FFC2
FFFD
0007
FF99
FFF8
FFEF
000C
0005
FFD8
FFD2
FFC6
FFC8
FFBD
FFC5
FFD1
0025
001B
FFDB
FFF1
0014
0041
FFC3
FF9F
0005
0004
FFA8
0031
0020
001D
FFBF
FFB4
FFF2
FFF9
FFBA
0033
FFF8
FFCD
0029
002F
FFF2
0010
0027
0002
0014
FFA9
003A
0024
FFF7
FFB3
FFF6
0018
0040
FFDD
001D
0040
FFD4
0003
FFAC
FFF2
0008
FFC2
0032
FFB0
0026
0000
0017
FFF2
FFE9
0014
0011
000F
FFDC
FFDC
FF7B
0020
000F
0020
0007
FFAC
FFDA
FFE8
0002
FFE4
0017
FFFA
001E
FFFC
000D
FFD8
FFDD
0000
FFC7
002B
001B
FFEE
0030
FFF8
000E
0007
FFE6
FFC7
001A
FFE9
FFEC
003C
FFA1
0023
FFB7
000A
FFD0
FFE7
002B
0015
000C
002B
FFEC
FFA0
FF9F
FFD4
0015
0011
FFD2
000D
001B
0001
FFBC
FFC5
FFB8
FFFC
0014
FFE1
FFDA
FFCE
0001
FFA9
FFD4
0016
FFF2
001E
002A
000D
FFAB
000A
FFBE
FFE1
FFEA
0024
001B
0029
FFD2
FFE1
FFE1
0019
0007
FFC7
FFF1
0029
001F
0011
001D
0017
000C
000A
0007
0001
0003
0027
FFF1
FFF7
FFBC
0034
0016
0015
FFEE
0020
FFEE
0021
0028
0004
0014
FFDF
FFDB
FFA7
002F
002B
FFE9
FFFA
FFF8
FF9D
000E
FFFD
0003
0011
0043
FFED
002B
FFB6
FFC9
FFCB
FFF9
0010
0007
0019
FFC7
FFBF
0039
000B
FFC1
001F
0011
FFBE
FFA9
0012
FFD0
002A
FFD0
FFF2
FFF1
000B
0011
FFFA
FFCB
FF9E
002A
0042
FFE8
0007
0032
FFF2
FF8B
FFB5
001A
002A
FFD5
000A
001A
0012
FFFC
FFE0
0001
FFAF
FFA7
FFB2
0031
FFD9
001E
0012
FFF8
FFFA
0027
FFF1
FFE0
001E
FF94
FFB8
0010
FFFB
0002
FFCB
0033
FFFA
FFC0
FFB7
FFF3
000D
001C
0033
0032
FFED
FFB9
FFEC
FFC3
FFF9
002B
0035
002D
000D
001F
0016
FFB5
FFF9
FFC3
FFFB
FFEB
FFD6
FFC6
0005
FF7D
FFF2
FFF5
FFD9
0029
FFD4
FFE7
FFCB
FFE6
0015
FFC0
000C
FFEE
002C
0015
FFE5
FFFB
000B
FFB6
000A
FFD0
003D
FFD1
FFEF
FF9E
FFEA
FFED
000A
FFDA
FFC3
FFEC
FFF7
0005
FFFD
FFC6
FFE4
FFF5
FFDB
001A
0015
0002
0020
0022
002C
0018
FFB7
FFE7
FFF6
000B
0000
FFF4
FFFB
FFF0
FFE6
FFFF
FFA0
FFA6
FFAC
FFEF
0037
FFDA
0002
002B
002A
0000
FFAE
FFED
0013
002E
001D
FFE4
FFAC
FFCA
0003
FFDA
000E
0046
0010
0027
FFC3
0007
002C
0023
001F
FFA2
FFF3
FFF9
FFF5
000D
FFFD
FFBF
0001
0015
0028
FFAC
FFD2
FFE0
FFD8
FFFA
0006
FFD6
0017
002B
FFE9
0000
0000
0039
FFF5
0036
FFF0
FFDB
0033
FFF6
FFA2
0014
FFF9
000A
FFE7
0025
FFDC
0002
FFF4
002A
001B
FF93
0009
FFDE
0000
0023
FFF2
0020
FFC9
FFDA
0028
0022
FFA6
0008
FFF2
0013
0008
0003
0025
FFDD
003C
FFEE
FFB3
0006
FFD6
FFCF
FFEE
FFDB
FFFD
FFE9
FFAA
0026
0019
000B
FFFC
FFD9
FFF8
FFEA
FFFA
0020
000E
000E
FFDA
FFA1
FFF7
0038
0022
0002
0020
0041
000F
0013
FFDE
0029
FFBD
FFE8
0029
000A
0026
FFF5
0027
FFA0
FFC8
0034
FFE1
FFE8
0030
0020
FFF2
FFE0
FFE8
FFF9
FFCA
FFEE
FFF5
FFF7
FF75
0039
FFF8
001E
FFDC
FFEA
000B
0007
FFDB
FFBD
0028
FF8F
0003
FFDF
FFE4
FFF2
FFE1
FFFF
FF86
0034
FFF6
FFE7
000A
FFFA
FFCF
FFE1
FFD8
0005
FFC7
FFDE
FFC9
FFBB
FFDA
0000
0010
0015
0006
FFE6
0020
0019
FFFE
0012
FFF5
001B
FFF1
0010
000C
001D
FFFA
FFEE
000B
FFCC
FFD4
FFCA
000A
FFAF
0028
FFBB
FFB9
0011
0025
FFC6
FFED
FFD2
FFE5
FFEA
001F
FFEB
FFE1
0012
FFCB
0039
0039
0007
0014
0024
FFF3
FFFF
0016
001F
FFE6
000F
FFEB
FFDA
0001
0003
0013
FFE5
FFC7
FFF0
000F
0017
FFB7
0030
FFD7
0020
FFD4
FFBC
0008
FFC2
FFD2
FFC2
0030
FFAD
FF6C
FFD2
0025
FFEB
004A
FFF6
0023
FFE1
0028
0026
0022
0010
0022
FFCA
0011
0019
FFFE
FFED
0022
0017
FFD2
FFDB
FFE7
FFF0
FFA1
FF90
FFAC
FFCC
FFCF
000E
FFBD
002B
FFCF
0008
000D
0024
FFAF
0026
0021
FFD5
FFF0
0001
004E
FFF1
FFBD
0017
FFA4
FFF9
0030
FFF3
0037
FFED
FFC0
FFE7
FFBE
FFDA
FFFC
FFDA
FFF7
FFF9
FFDB
FFE2
0003
FFC9
0013
FFD3
0018
0029
0031
FFFB
0018
FF73
FFEB
FFD4
FFE3
FFF3
000D
000D
FFCE
000B
0006
0000
FFB3
002D
FFDA
0014
000E
FFE0
FFB9
0021
0025
0028
FFBA
FFC5
0030
000D
0026
FFC9
0020
002F
FFEB
0016
FFC8
0016
002A
0020
0011
FFC2
FFF7
FFDF
FFDC
001A
000D
0001
0026
0015
0019
FF87
0002
FFEA
0026
FFB7
FFD9
000F
0029
0033
001F
0037
FFD9
FFE9
0020
0016
FFAA
0029
FFEE
FFF8
000A
FFE4
FF78
FFF2
0004
0006
FFEF
FFE0
FFE9
FF84
0021
0047
0023
FFB0
0006
0001
FFE4
FFDE
FFD4
0030
0038
000F
FFA0
0021
0014
0010
FFE2
002F
0011
0005
0036
FFFE
FFD3
000E
FFFA
FFFA
FFE5
FFDE
FFEC
FFF8
FFF6
FFE5
0022
0001
0026
FFF1
0006
FFA7
FFEF
FFF4
0002
FFE1
FFFA
FFE5
000A
FFAB
0012
FFD1
003E
000C
FFFF
0014
0007
0025
FFDE
FFF1
0014
FFB7
FFDC
FFE7
002C
000C
0035
FFF8
FF89
0015
FFFC
